{
  "0": "\u0000",
  "1": "\u0001",
  "2": "\u0002",
  "3": "\u0003",
  "4": "\u0004",
  "5": "\u0005",
  "6": "\u0006",
  "7": "\u0007",
  "8": "\b",
  "9": "\t",
  "10": "\n",
  "11": "\u000b",
  "12": "\f",
  "13": "\r",
  "14": "\u000e",
  "15": "\u000f",
  "16": "\u0010",
  "17": "\u0011",
  "18": "\u0012",
  "19": "\u0013",
  "20": "\u0014",
  "21": "\u0015",
  "22": "\u0016",
  "23": "\u0017",
  "24": "\u0018",
  "25": "\u0019",
  "26": "\u001a",
  "27": "\u001b",
  "28": "\u001c",
  "29": "\u001d",
  "30": "\u001e",
  "31": "\u001f",
  "32": " ",
  "33": "!",
  "34": "\"",
  "35": "#",
  "36": "$",
  "37": "%",
  "38": "&",
  "39": "'",
  "40": "(",
  "41": ")",
  "42": "*",
  "43": "+",
  "44": ",",
  "45": "-",
  "46": ".",
  "47": "/",
  "48": "0",
  "49": "1",
  "50": "2",
  "51": "3",
  "52": "4",
  "53": "5",
  "54": "6",
  "55": "7",
  "56": "8",
  "57": "9",
  "58": ":",
  "59": ";",
  "60": "<",
  "61": "=",
  "62": ">",
  "63": "?",
  "64": "@",
  "65": "A",
  "66": "B",
  "67": "C",
  "68": "D",
  "69": "E",
  "70": "F",
  "71": "G",
  "72": "H",
  "73": "I",
  "74": "J",
  "75": "K",
  "76": "L",
  "77": "M",
  "78": "N",
  "79": "O",
  "80": "P",
  "81": "Q",
  "82": "R",
  "83": "S",
  "84": "T",
  "85": "U",
  "86": "V",
  "87": "W",
  "88": "X",
  "89": "Y",
  "90": "Z",
  "91": "[",
  "92": "\\",
  "93": "]",
  "94": "^",
  "95": "_",
  "96": "`",
  "97": "a",
  "98": "b",
  "99": "c",
  "100": "d",
  "101": "e",
  "102": "f",
  "103": "g",
  "104": "h",
  "105": "i",
  "106": "j",
  "107": "k",
  "108": "l",
  "109": "m",
  "110": "n",
  "111": "o",
  "112": "p",
  "113": "q",
  "114": "r",
  "115": "s",
  "116": "t",
  "117": "u",
  "118": "v",
  "119": "w",
  "120": "x",
  "121": "y",
  "122": "z",
  "123": "{",
  "124": "|",
  "125": "}",
  "126": "~",
  "127": "",
  "128": "\\x80",
  "129": "\\x81",
  "130": "\\x82",
  "131": "\\x83",
  "132": "\\x84",
  "133": "\\x85",
  "134": "\\x86",
  "135": "\\x87",
  "136": "\\x88",
  "137": "\\x89",
  "138": "\\x8a",
  "139": "\\x8b",
  "140": "\\x8c",
  "141": "\\x8d",
  "142": "\\x8e",
  "143": "\\x8f",
  "144": "\\x90",
  "145": "\\x91",
  "146": "\\x92",
  "147": "\\x93",
  "148": "\\x94",
  "149": "\\x95",
  "150": "\\x96",
  "151": "\\x97",
  "152": "\\x98",
  "153": "\\x99",
  "154": "\\x9a",
  "155": "\\x9b",
  "156": "\\x9c",
  "157": "\\x9d",
  "158": "\\x9e",
  "159": "\\x9f",
  "160": "\\xa0",
  "161": "\\xa1",
  "162": "\\xa2",
  "163": "\\xa3",
  "164": "\\xa4",
  "165": "\\xa5",
  "166": "\\xa6",
  "167": "\\xa7",
  "168": "\\xa8",
  "169": "\\xa9",
  "170": "\\xaa",
  "171": "\\xab",
  "172": "\\xac",
  "173": "\\xad",
  "174": "\\xae",
  "175": "\\xaf",
  "176": "\\xb0",
  "177": "\\xb1",
  "178": "\\xb2",
  "179": "\\xb3",
  "180": "\\xb4",
  "181": "\\xb5",
  "182": "\\xb6",
  "183": "\\xb7",
  "184": "\\xb8",
  "185": "\\xb9",
  "186": "\\xba",
  "187": "\\xbb",
  "188": "\\xbc",
  "189": "\\xbd",
  "190": "\\xbe",
  "191": "\\xbf",
  "192": "\\xc0",
  "193": "\\xc1",
  "194": "\\xc2",
  "195": "\\xc3",
  "196": "\\xc4",
  "197": "\\xc5",
  "198": "\\xc6",
  "199": "\\xc7",
  "200": "\\xc8",
  "201": "\\xc9",
  "202": "\\xca",
  "203": "\\xcb",
  "204": "\\xcc",
  "205": "\\xcd",
  "206": "\\xce",
  "207": "\\xcf",
  "208": "\\xd0",
  "209": "\\xd1",
  "210": "\\xd2",
  "211": "\\xd3",
  "212": "\\xd4",
  "213": "\\xd5",
  "214": "\\xd6",
  "215": "\\xd7",
  "216": "\\xd8",
  "217": "\\xd9",
  "218": "\\xda",
  "219": "\\xdb",
  "220": "\\xdc",
  "221": "\\xdd",
  "222": "\\xde",
  "223": "\\xdf",
  "224": "\\xe0",
  "225": "\\xe1",
  "226": "\\xe2",
  "227": "\\xe3",
  "228": "\\xe4",
  "229": "\\xe5",
  "230": "\\xe6",
  "231": "\\xe7",
  "232": "\\xe8",
  "233": "\\xe9",
  "234": "\\xea",
  "235": "\\xeb",
  "236": "\\xec",
  "237": "\\xed",
  "238": "\\xee",
  "239": "\\xef",
  "240": "\\xf0",
  "241": "\\xf1",
  "242": "\\xf2",
  "243": "\\xf3",
  "244": "\\xf4",
  "245": "\\xf5",
  "246": "\\xf6",
  "247": "\\xf7",
  "248": "\\xf8",
  "249": "\\xf9",
  "250": "\\xfa",
  "251": "\\xfb",
  "252": "\\xfc",
  "253": "\\xfd",
  "254": "\\xfe",
  "255": "\\xff",
  "256": "<|endoftext|>",
  "257": " t",
  "258": "he",
  "259": " a",
  "260": " s",
  "261": " w",
  "262": "nd",
  "263": " the",
  "264": "ed",
  "265": " b",
  "266": " to",
  "267": " and",
  "268": " h",
  "269": " f",
  "270": "in",
  "271": " T",
  "272": " wa",
  "273": "re",
  "274": "it",
  "275": "ou",
  "276": " l",
  "277": " d",
  "278": " c",
  "279": " p",
  "280": "ay",
  "281": " m",
  "282": "er",
  "283": " was",
  "284": "om",
  "285": " The",
  "286": " he",
  "287": "is",
  "288": "ar",
  "289": " n",
  "290": "im",
  "291": "on",
  "292": " sa",
  "293": "id",
  "294": "ll",
  "295": " ha",
  "296": " g",
  "297": "at",
  "298": " S",
  "299": "ing",
  "300": "ot",
  "301": "en",
  "302": "an",
  "303": "le",
  "304": "or",
  "305": "ir",
  "306": "am",
  "307": "et",
  "308": " H",
  "309": " it",
  "310": " th",
  "311": "ig",
  "312": " They",
  "313": " in",
  "314": "il",
  "315": " pl",
  "316": " He",
  "317": " \"",
  "318": "ow",
  "319": "ver",
  "320": "ri",
  "321": "ut",
  "322": " be",
  "323": " u",
  "324": " said",
  "325": " play",
  "326": "ith",
  "327": " day",
  "328": " with",
  "329": "pp",
  "330": "On",
  "331": " o",
  "332": " y",
  "333": "oo",
  "334": "ked",
  "335": " r",
  "336": " her",
  "337": "ce",
  "338": " I",
  "339": " She",
  "340": "ld",
  "341": " Tim",
  "342": " his",
  "343": " st",
  "344": "ke",
  "345": " e",
  "346": " big",
  "347": "nt",
  "348": "ck",
  "349": " you",
  "350": "very",
  "351": "st",
  "352": "ve",
  "353": "end",
  "354": " on",
  "355": "un",
  "356": " happ",
  "357": "riend",
  "358": " friend",
  "359": "all",
  "360": "ily",
  "361": " L",
  "362": " they",
  "363": " we",
  "364": " had",
  "365": " not",
  "366": " li",
  "367": " up",
  "368": "her",
  "369": " want",
  "370": " of",
  "371": "ad",
  "372": "itt",
  "373": "se",
  "374": " B",
  "375": " do",
  "376": " happy",
  "377": "ent",
  "378": " very",
  "379": " M",
  "380": "es",
  "381": " that",
  "382": " saw",
  "383": "One",
  "384": "'s",
  "385": "ould",
  "386": " mom",
  "387": " for",
  "388": " sh",
  "389": "ittle",
  "390": " little",
  "391": " so",
  "392": " she",
  "393": "ch",
  "394": "ime",
  "395": " ne",
  "396": " nam",
  "397": ".\"",
  "398": " time",
  "399": " k",
  "400": "ound",
  "401": " there",
  "402": " named",
  "403": " sm",
  "404": " bo",
  "405": " were",
  "406": " Lily",
  "407": " wanted",
  "408": " but",
  "409": "out",
  "410": "The",
  "411": " friends",
  "412": "ved",
  "413": "!\"",
  "414": "ht",
  "415": " Tom",
  "416": "ird",
  "417": "el",
  "418": " bird",
  "419": "al",
  "420": " an",
  "421": "ake",
  "422": " too",
  "423": "ome",
  "424": " It",
  "425": "ug",
  "426": "ide",
  "427": " went",
  "428": " wh",
  "429": " hel",
  "430": "Once",
  "431": " is",
  "432": " all",
  "433": " help",
  "434": "ue",
  "435": " loo",
  "436": " lo",
  "437": "ter",
  "438": " A",
  "439": " upon",
  "440": "ry",
  "441": "ore",
  "442": "ind",
  "443": " fun",
  "444": "get",
  "445": " toy",
  "446": "ill",
  "447": "ame",
  "448": " as",
  "449": " at",
  "450": "ra",
  "451": " j",
  "452": " did",
  "453": "gether",
  "454": " re",
  "455": "ur",
  "456": " se",
  "457": " together",
  "458": "ack",
  "459": " cat",
  "460": "ly",
  "461": " tre",
  "462": "ood",
  "463": "ic",
  "464": "ted",
  "465": " dog",
  "466": " could",
  "467": " can",
  "468": " their",
  "469": "ard",
  "470": "ec",
  "471": "ark",
  "472": " gir",
  "473": " played",
  "474": " him",
  "475": " ball",
  "476": "?\"",
  "477": " girl",
  "478": "way",
  "479": " ro",
  "480": " go",
  "481": "hed",
  "482": "my",
  "483": " are",
  "484": " out",
  "485": " le",
  "486": " fr",
  "487": "ain",
  "488": " kn",
  "489": "hen",
  "490": " them",
  "491": "um",
  "492": "'t",
  "493": "ax",
  "494": " sad",
  "495": "ul",
  "496": " boy",
  "497": " tree",
  "498": "other",
  "499": " have",
  "500": " man",
  "501": " cl",
  "502": " loved",
  "503": " looked",
  "504": "oug",
  "505": " found",
  "506": " sp",
  "507": " star",
  "508": " Sue",
  "509": "one",
  "510": "hing",
  "511": " sc",
  "512": " back",
  "513": "own",
  "514": " Max",
  "515": "are",
  "516": " like",
  "517": "ful",
  "518": "side",
  "519": " me",
  "520": " bec",
  "521": " park",
  "522": "ight",
  "523": "ong",
  "524": " car",
  "525": "op",
  "526": "elt",
  "527": " One",
  "528": " liked",
  "529": " would",
  "530": " make",
  "531": "round",
  "532": " la",
  "533": " fa",
  "534": " felt",
  "535": "You",
  "536": " W",
  "537": "ell",
  "538": " see",
  "539": " But",
  "540": "omet",
  "541": " asked",
  "542": "ag",
  "543": " new",
  "544": " no",
  "545": "ice",
  "546": " Sam",
  "547": "ouse",
  "548": " started",
  "549": "ared",
  "550": " came",
  "551": " Ben",
  "552": " al",
  "553": " other",
  "554": "ought",
  "555": "iled",
  "556": " somet",
  "557": " ag",
  "558": " good",
  "559": " small",
  "560": "ss",
  "561": " br",
  "562": " smiled",
  "563": " say",
  "564": "ried",
  "565": "ade",
  "566": "ings",
  "567": " \n",
  "568": "ob",
  "569": "pot",
  "570": " wor",
  "571": " find",
  "572": " ex",
  "573": "ia",
  "574": " away",
  "575": "ty",
  "576": " put",
  "577": " what",
  "578": " something",
  "579": " co",
  "580": " from",
  "581": " made",
  "582": " thought",
  "583": "ened",
  "584": " home",
  "585": " playing",
  "586": "ook",
  "587": " every",
  "588": " wal",
  "589": " mu",
  "590": "uc",
  "591": "ach",
  "592": "arn",
  "593": " Spot",
  "594": " ran",
  "595": "ile",
  "596": " F",
  "597": "ie",
  "598": " J",
  "599": "ave",
  "600": " again",
  "601": " some",
  "602": " laug",
  "603": "dd",
  "604": " house",
  "605": " down",
  "606": " fl",
  "607": "king",
  "608": " took",
  "609": " scared",
  "610": " pr",
  "611": "ny",
  "612": "ure",
  "613": " toys",
  "614": " learn",
  "615": " You",
  "616": "if",
  "617": " will",
  "618": " box",
  "619": "ick",
  "620": "ret",
  "621": "ab",
  "622": "ep",
  "623": " my",
  "624": " around",
  "625": " things",
  "626": " your",
  "627": "oud",
  "628": " bl",
  "629": "uck",
  "630": " when",
  "631": "ish",
  "632": " lived",
  "633": " fe",
  "634": " then",
  "635": " sun",
  "636": "as",
  "637": " sw",
  "638": ",\"",
  "639": " ch",
  "640": "us",
  "641": "pped",
  "642": " ab",
  "643": " Mia",
  "644": "ank",
  "645": " get",
  "646": "ucy",
  "647": "Tim",
  "648": "ump",
  "649": "Th",
  "650": " lot",
  "651": "ist",
  "652": "oth",
  "653": " tried",
  "654": "ap",
  "655": " know",
  "656": " says",
  "657": " got",
  "658": "ited",
  "659": " who",
  "660": " kne",
  "661": "ust",
  "662": " many",
  "663": "nder",
  "664": " int",
  "665": " about",
  "666": "Lily",
  "667": " pret",
  "668": " dec",
  "669": " any",
  "670": " red",
  "671": " D",
  "672": "ive",
  "673": " knew",
  "674": "ace",
  "675": "ous",
  "676": " more",
  "677": "ise",
  "678": " care",
  "679": "ally",
  "680": " pic",
  "681": "au",
  "682": "qu",
  "683": " hug",
  "684": " Lucy",
  "685": " learned",
  "686": " po",
  "687": " water",
  "688": "fter",
  "689": " v",
  "690": " became",
  "691": " best",
  "692": "ause",
  "693": " op",
  "694": " gre",
  "695": " exc",
  "696": "urp",
  "697": "ways",
  "698": "\\xe2\\x80",
  "699": " outside",
  "700": " laughed",
  "701": " look",
  "702": " always",
  "703": " decid",
  "704": " show",
  "705": " un",
  "706": "ant",
  "707": " Bob",
  "708": " room",
  "709": "fe",
  "710": " decided",
  "711": " ho",
  "712": " because",
  "713": " So",
  "714": " into",
  "715": " eat",
  "716": "ite",
  "717": " jump",
  "718": " And",
  "719": " pe",
  "720": " both",
  "721": "ers",
  "722": " Mom",
  "723": " dad",
  "724": "They",
  "725": "udd",
  "726": " ke",
  "727": " one",
  "728": "nn",
  "729": " this",
  "730": " excited",
  "731": " fast",
  "732": " nice",
  "733": " E",
  "734": " feel",
  "735": "Tom",
  "736": "Yes",
  "737": " run",
  "738": " long",
  "739": " told",
  "740": " sk",
  "741": " am",
  "742": "urpr",
  "743": "our",
  "744": " inside",
  "745": "ull",
  "746": " tr",
  "747": " surpr",
  "748": " mo",
  "749": "ink",
  "750": " pretty",
  "751": "iny",
  "752": " sor",
  "753": "Wh",
  "754": " take",
  "755": "og",
  "756": " sl",
  "757": " each",
  "758": " gave",
  "759": " much",
  "760": " gra",
  "761": "lew",
  "762": "nna",
  "763": " rock",
  "764": " how",
  "765": " str",
  "766": "ara",
  "767": "imal",
  "768": " animal",
  "769": "ged",
  "770": " need",
  "771": " than",
  "772": "But",
  "773": "ven",
  "774": "etter",
  "775": " tow",
  "776": " or",
  "777": " C",
  "778": " under",
  "779": "ess",
  "780": " old",
  "781": " sorry",
  "782": "ge",
  "783": "ised",
  "784": "ro",
  "785": "urt",
  "786": " cle",
  "787": " fish",
  "788": " walked",
  "789": " clo",
  "790": "and",
  "791": " bear",
  "792": "ft",
  "793": "ase",
  "794": "ast",
  "795": " hand",
  "796": "urn",
  "797": " We",
  "798": " kind",
  "799": " His",
  "800": " te",
  "801": "here",
  "802": " happened",
  "803": " just",
  "804": " flow",
  "805": " food",
  "806": " list",
  "807": " didn",
  "808": " animals",
  "809": " hig",
  "810": "pl",
  "811": " near",
  "812": " wat",
  "813": " ide",
  "814": " try",
  "815": "ched",
  "816": " sky",
  "817": "ine",
  "818": " sn",
  "819": "ving",
  "820": " fi",
  "821": "rom",
  "822": " us",
  "823": " idea",
  "824": " better",
  "825": " Amy",
  "826": " bug",
  "827": " heard",
  "828": "gry",
  "829": " its",
  "830": " tw",
  "831": " let",
  "832": "pec",
  "833": "ate",
  "834": "able",
  "835": "ff",
  "836": " en",
  "837": " careful",
  "838": " share",
  "839": "ex",
  "840": " if",
  "841": "Thank",
  "842": "Mom",
  "843": " fly",
  "844": " stor",
  "845": "ial",
  "846": " flew",
  "847": "more",
  "848": " anymore",
  "849": " Th",
  "850": " spec",
  "851": " special",
  "852": "ion",
  "853": " com",
  "854": " lots",
  "855": " never",
  "856": " by",
  "857": "lf",
  "858": "ream",
  "859": " dan",
  "860": " bu",
  "861": " fo",
  "862": " wind",
  "863": " don",
  "864": " tal",
  "865": " clean",
  "866": "ort",
  "867": " gr",
  "868": " love",
  "869": "rm",
  "870": "ber",
  "871": " end",
  "872": " Then",
  "873": "ople",
  "874": " even",
  "875": " mag",
  "876": " hard",
  "877": " shiny",
  "878": "udden",
  "879": " fore",
  "880": " over",
  "881": " cake",
  "882": "ak",
  "883": " book",
  "884": " col",
  "885": " turn",
  "886": " fam",
  "887": " bad",
  "888": " safe",
  "889": " after",
  "890": "ady",
  "891": " Anna",
  "892": "uddenly",
  "893": " people",
  "894": " proud",
  "895": " Every",
  "896": " surprised",
  "897": "pected",
  "898": "Let",
  "899": " high",
  "900": " cu",
  "901": " hurt",
  "902": " come",
  "903": "imb",
  "904": "arden",
  "905": " door",
  "906": " garden",
  "907": "bb",
  "908": " ground",
  "909": " opened",
  "910": " picked",
  "911": " loud",
  "912": " climb",
  "913": "expected",
  "914": " unexpected",
  "915": " gl",
  "916": " che",
  "917": "ild",
  "918": " im",
  "919": "As",
  "920": " give",
  "921": " way",
  "922": "ail",
  "923": "'m",
  "924": " thanked",
  "925": " color",
  "926": " blue",
  "927": " still",
  "928": " ever",
  "929": " hugged",
  "930": " From",
  "931": " call",
  "932": " far",
  "933": "ip",
  "934": " Her",
  "935": " Sara",
  "936": " When",
  "937": "No",
  "938": " off",
  "939": " magic",
  "940": "iz",
  "941": "ough",
  "942": "age",
  "943": "ummy",
  "944": " K",
  "945": " jumped",
  "946": " should",
  "947": " family",
  "948": " par",
  "949": "ool",
  "950": " kid",
  "951": " smile",
  "952": "hes",
  "953": "uff",
  "954": " place",
  "955": "kay",
  "956": " walk",
  "957": " now",
  "958": "ct",
  "959": " In",
  "960": " great",
  "961": "em",
  "962": "ture",
  "963": " qu",
  "964": "les",
  "965": " strong",
  "966": " stay",
  "967": " unt",
  "968": " sto",
  "969": "aut",
  "970": " forest",
  "971": "ane",
  "972": " bra",
  "973": "itty",
  "974": " P",
  "975": " frog",
  "976": " bro",
  "977": " until",
  "978": "oon",
  "979": " beaut",
  "980": "dy",
  "981": " squ",
  "982": " stick",
  "983": "xt",
  "984": " next",
  "985": " boat",
  "986": "lease",
  "987": "ning",
  "988": " happily",
  "989": " listen",
  "990": "aking",
  "991": " kids",
  "992": " tra",
  "993": "ies",
  "994": "iful",
  "995": " beautiful",
  "996": " app",
  "997": "th",
  "998": " helped",
  "999": " dra",
  "1000": " showed",
  "1001": " clos",
  "1002": "be",
  "1003": " imp",
  "1004": " story",
  "1005": "unny",
  "1006": "oy",
  "1007": " while",
  "1008": " town",
  "1009": "rel",
  "1010": "pt",
  "1011": " rain",
  "1012": "ress",
  "1013": " picture",
  "1014": " being",
  "1015": " rem",
  "1016": " everyone",
  "1017": "It",
  "1018": "ary",
  "1019": "ree",
  "1020": " mor",
  "1021": " hat",
  "1022": " called",
  "1023": " met",
  "1024": " stopped",
  "1025": " ad",
  "1026": " game",
  "1027": "Now",
  "1028": "He",
  "1029": "Can",
  "1030": " angry",
  "1031": "ger",
  "1032": "uffy",
  "1033": " open",
  "1034": " wo",
  "1035": " truck",
  "1036": " keep",
  "1037": " soft",
  "1038": "When",
  "1039": " cry",
  "1040": " yummy",
  "1041": " lost",
  "1042": " bed",
  "1043": " Let",
  "1044": " Sally",
  "1045": " warm",
  "1046": "by",
  "1047": "vent",
  "1048": " brave",
  "1049": " mouse",
  "1050": " Wh",
  "1051": " ate",
  "1052": " Kitty",
  "1053": "ished",
  "1054": " de",
  "1055": "fore",
  "1056": " doll",
  "1057": "so",
  "1058": " couldn",
  "1059": " watch",
  "1060": " leave",
  "1061": " also",
  "1062": "dded",
  "1063": " fell",
  "1064": " green",
  "1065": " face",
  "1066": " two",
  "1067": "gan",
  "1068": "iss",
  "1069": " flowers",
  "1070": "bit",
  "1071": "What",
  "1072": " R",
  "1073": "ble",
  "1074": " noise",
  "1075": "abbit",
  "1076": "irst",
  "1077": "owl",
  "1078": " where",
  "1079": "az",
  "1080": "ock",
  "1081": " soon",
  "1082": "self",
  "1083": " slide",
  "1084": " rabbit",
  "1085": " hole",
  "1086": "luffy",
  "1087": " before",
  "1088": "irrel",
  "1089": " pus",
  "1090": "ired",
  "1091": " sat",
  "1092": "illy",
  "1093": " hear",
  "1094": " use",
  "1095": "”",
  "1096": "Hi",
  "1097": " pa",
  "1098": " kept",
  "1099": "“",
  "1100": "That",
  "1101": " squirrel",
  "1102": "ear",
  "1103": "Then",
  "1104": "ma",
  "1105": " nodded",
  "1106": " expl",
  "1107": " store",
  "1108": " cook",
  "1109": " hands",
  "1110": "Look",
  "1111": " birds",
  "1112": " pain",
  "1113": " going",
  "1114": " funny",
  "1115": " having",
  "1116": "day",
  "1117": " sing",
  "1118": "aybe",
  "1119": "uch",
  "1120": " ey",
  "1121": "aug",
  "1122": " catch",
  "1123": "aught",
  "1124": " Can",
  "1125": " Fluffy",
  "1126": "uit",
  "1127": " yell",
  "1128": " think",
  "1129": "leep",
  "1130": " cra",
  "1131": " fin",
  "1132": "Ben",
  "1133": " bre",
  "1134": " fix",
  "1135": " tired",
  "1136": " bunny",
  "1137": " used",
  "1138": " looking",
  "1139": " bus",
  "1140": "ange",
  "1141": "air",
  "1142": " work",
  "1143": " wr",
  "1144": " our",
  "1145": " pull",
  "1146": "We",
  "1147": " thr",
  "1148": "thing",
  "1149": " Now",
  "1150": " wait",
  "1151": " kit",
  "1152": " sound",
  "1153": "ting",
  "1154": " jo",
  "1155": " has",
  "1156": " G",
  "1157": " mean",
  "1158": " pond",
  "1159": "ember",
  "1160": " beh",
  "1161": " dr",
  "1162": " sunny",
  "1163": "led",
  "1164": " others",
  "1165": " ask",
  "1166": "ng",
  "1167": "chen",
  "1168": " kitchen",
  "1169": " talk",
  "1170": " flo",
  "1171": " dif",
  "1172": "rew",
  "1173": " pie",
  "1174": " Jo",
  "1175": " head",
  "1176": " real",
  "1177": " first",
  "1178": " tri",
  "1179": " mommy",
  "1180": " eyes",
  "1181": "ello",
  "1182": " import",
  "1183": "Hello",
  "1184": " fav",
  "1185": "ath",
  "1186": "joy",
  "1187": " z",
  "1188": " remember",
  "1189": " right",
  "1190": " flower",
  "1191": " con",
  "1192": " mess",
  "1193": " party",
  "1194": " cold",
  "1195": " Do",
  "1196": " vo",
  "1197": " swe",
  "1198": "ious",
  "1199": " sand",
  "1200": " “",
  "1201": "ac",
  "1202": "orn",
  "1203": " race",
  "1204": " curi",
  "1205": "imes",
  "1206": " important",
  "1207": " duck",
  "1208": " moral",
  "1209": " shared",
  "1210": "zy",
  "1211": "ount",
  "1212": " Jack",
  "1213": " ice",
  "1214": " okay",
  "1215": " advent",
  "1216": " worked",
  "1217": "llow",
  "1218": "At",
  "1219": " enjoy",
  "1220": " dress",
  "1221": " bright",
  "1222": " making",
  "1223": " curious",
  "1224": " own",
  "1225": " tall",
  "1226": " dir",
  "1227": " hop",
  "1228": "reed",
  "1229": " hid",
  "1230": " favor",
  "1231": " ri",
  "1232": "hn",
  "1233": " sleep",
  "1234": " dis",
  "1235": "Wow",
  "1236": " favorite",
  "1237": " thing",
  "1238": " began",
  "1239": " mon",
  "1240": " bag",
  "1241": " hill",
  "1242": "Don",
  "1243": " cla",
  "1244": " draw",
  "1245": " rest",
  "1246": " here",
  "1247": " yard",
  "1248": " tell",
  "1249": " Fin",
  "1250": "ster",
  "1251": " watched",
  "1252": "que",
  "1253": " follow",
  "1254": " move",
  "1255": " bel",
  "1256": "ect",
  "1257": " cut",
  "1258": " night",
  "1259": " agreed",
  "1260": " pick",
  "1261": "co",
  "1262": " block",
  "1263": " hun",
  "1264": "aper",
  "1265": "lly",
  "1266": " stop",
  "1267": " behind",
  "1268": " This",
  "1269": " surprise",
  "1270": "ied",
  "1271": " sho",
  "1272": " hot",
  "1273": "After",
  "1274": " table",
  "1275": " grass",
  "1276": " worry",
  "1277": " dark",
  "1278": " trees",
  "1279": " voice",
  "1280": " walking",
  "1281": "fere",
  "1282": " floor",
  "1283": " farm",
  "1284": " lion",
  "1285": " top",
  "1286": " differe",
  "1287": " please",
  "1288": " ru",
  "1289": " song",
  "1290": " butter",
  "1291": " tail",
  "1292": " sweet",
  "1293": "Max",
  "1294": " shout",
  "1295": " colors",
  "1296": " read",
  "1297": " Dad",
  "1298": " lady",
  "1299": " forg",
  "1300": "isy",
  "1301": " leaves",
  "1302": " closer",
  "1303": "ign",
  "1304": " cars",
  "1305": " turned",
  "1306": " needed",
  "1307": " tast",
  "1308": "Why",
  "1309": "aring",
  "1310": " wood",
  "1311": " cried",
  "1312": " different",
  "1313": " laugh",
  "1314": " del",
  "1315": " piece",
  "1316": "’",
  "1317": "ered",
  "1318": " Mr",
  "1319": " roll",
  "1320": " adventure",
  "1321": " fire",
  "1322": " does",
  "1323": "ike",
  "1324": " cr",
  "1325": " hungry",
  "1326": " hair",
  "1327": " Suddenly",
  "1328": " paper",
  "1329": " feeling",
  "1330": " yellow",
  "1331": " full",
  "1332": "bo",
  "1333": " prin",
  "1334": "Sue",
  "1335": " touch",
  "1336": " As",
  "1337": "Anna",
  "1338": "Sam",
  "1339": " wet",
  "1340": " friendly",
  "1341": " per",
  "1342": "oom",
  "1343": "ken",
  "1344": "cked",
  "1345": "ached",
  "1346": " swing",
  "1347": " fruit",
  "1348": "ient",
  "1349": " broken",
  "1350": " ready",
  "1351": "bye",
  "1352": "ppy",
  "1353": " prom",
  "1354": " That",
  "1355": " another",
  "1356": " light",
  "1357": " pretend",
  "1358": " dance",
  "1359": "ater",
  "1360": " climbed",
  "1361": "where",
  "1362": " listened",
  "1363": " Bobo",
  "1364": " danc",
  "1365": " running",
  "1366": " only",
  "1367": " plan",
  "1368": " gone",
  "1369": " swim",
  "1370": "bbed",
  "1371": "Suddenly",
  "1372": "sh",
  "1373": " train",
  "1374": "ila",
  "1375": "ndma",
  "1376": "Sara",
  "1377": " Jane",
  "1378": " close",
  "1379": "av",
  "1380": "She",
  "1381": " smell",
  "1382": "So",
  "1383": "aby",
  "1384": " amaz",
  "1385": " hold",
  "1386": " blocks",
  "1387": " wonder",
  "1388": " Timmy",
  "1389": " repl",
  "1390": " All",
  "1391": " butterf",
  "1392": " sees",
  "1393": " reached",
  "1394": " wall",
  "1395": " pu",
  "1396": "oney",
  "1397": "red",
  "1398": " slow",
  "1399": " helping",
  "1400": " dri",
  "1401": " cream",
  "1402": " cool",
  "1403": " glad",
  "1404": "af",
  "1405": " ant",
  "1406": " less",
  "1407": " been",
  "1408": " goodbye",
  "1409": " ac",
  "1410": " fight",
  "1411": "ather",
  "1412": "Mia",
  "1413": " pushed",
  "1414": "iced",
  "1415": " fair",
  "1416": " must",
  "1417": " hide",
  "1418": " moment",
  "1419": " window",
  "1420": " O",
  "1421": " sit",
  "1422": " balloon",
  "1423": " snow",
  "1424": " child",
  "1425": " explore",
  "1426": " Everyone",
  "1427": " ar",
  "1428": " wished",
  "1429": " baby",
  "1430": " done",
  "1431": " wag",
  "1432": " ste",
  "1433": " buy",
  "1434": " stuck",
  "1435": " perf",
  "1436": " thank",
  "1437": " might",
  "1438": "icy",
  "1439": " name",
  "1440": "ized",
  "1441": " trying",
  "1442": " bit",
  "1443": " coming",
  "1444": " bar",
  "1445": " quick",
  "1446": " fall",
  "1447": " apple",
  "1448": "ash",
  "1449": " scary",
  "1450": " looks",
  "1451": " build",
  "1452": " doing",
  "1453": " win",
  "1454": " underst",
  "1455": "aisy",
  "1456": " din",
  "1457": " dream",
  "1458": " dirty",
  "1459": " held",
  "1460": "ames",
  "1461": " books",
  "1462": " mar",
  "1463": "In",
  "1464": " butterfly",
  "1465": " left",
  "1466": " shouted",
  "1467": " count",
  "1468": " replied",
  "1469": "avy",
  "1470": " reach",
  "1471": " tiny",
  "1472": " through",
  "1473": "ott",
  "1474": " dro",
  "1475": " why",
  "1476": " air",
  "1477": " bran",
  "1478": " land",
  "1479": "key",
  "1480": " three",
  "1481": " pulled",
  "1482": " spl",
  "1483": " grow",
  "1484": " treat",
  "1485": " brother",
  "1486": " wise",
  "1487": " woods",
  "1488": " sure",
  "1489": "'re",
  "1490": " chair",
  "1491": "ix",
  "1492": " mat",
  "1493": "ins",
  "1494": " seen",
  "1495": " pink",
  "1496": " clapped",
  "1497": " plant",
  "1498": "ely",
  "1499": " owl",
  "1500": " cup",
  "1501": "ield",
  "1502": " sometimes",
  "1503": "andy",
  "1504": " fill",
  "1505": " cloud",
  "1506": "ask",
  "1507": " swam",
  "1508": "outh",
  "1509": " job",
  "1510": " colorful",
  "1511": " remembered",
  "1512": " bigger",
  "1513": " nest",
  "1514": " mouth",
  "1515": "pe",
  "1516": "Okay",
  "1517": " lesson",
  "1518": " join",
  "1519": " cre",
  "1520": "ph",
  "1521": " There",
  "1522": "oup",
  "1523": "room",
  "1524": "art",
  "1525": " waved",
  "1526": "uddy",
  "1527": " grabbed",
  "1528": " stayed",
  "1529": "Oh",
  "1530": " paint",
  "1531": "This",
  "1532": " clot",
  "1533": " cont",
  "1534": " clothes",
  "1535": " ve",
  "1536": "ower",
  "1537": " After",
  "1538": " waited",
  "1539": " quickly",
  "1540": "cle",
  "1541": " word",
  "1542": " broke",
  "1543": "ucky",
  "1544": " games",
  "1545": " cast",
  "1546": " blew",
  "1547": " gent",
  "1548": " Mommy",
  "1549": " enjoyed",
  "1550": " noticed",
  "1551": "Jo",
  "1552": "ries",
  "1553": "ation",
  "1554": " set",
  "1555": " likes",
  "1556": " pictures",
  "1557": "ton",
  "1558": "de",
  "1559": " sea",
  "1560": " heavy",
  "1561": " mus",
  "1562": " alone",
  "1563": " gif",
  "1564": "asure",
  "1565": " anything",
  "1566": " spot",
  "1567": " miss",
  "1568": " hopped",
  "1569": " world",
  "1570": " turns",
  "1571": "orm",
  "1572": " year",
  "1573": "der",
  "1574": " bott",
  "1575": " pat",
  "1576": " pot",
  "1577": " pen",
  "1578": "lc",
  "1579": "Her",
  "1580": " mix",
  "1581": " arm",
  "1582": " bike",
  "1583": " tight",
  "1584": " everywhere",
  "1585": " won",
  "1586": "Lucy",
  "1587": " tower",
  "1588": " threw",
  "1589": " himself",
  "1590": " followed",
  "1591": " Buddy",
  "1592": " ride",
  "1593": "man",
  "1594": "less",
  "1595": " ju",
  "1596": " je",
  "1597": "amp",
  "1598": "Bob",
  "1599": "ape",
  "1600": " comp",
  "1601": " key",
  "1602": "row",
  "1603": "\".",
  "1604": " white",
  "1605": "ctor",
  "1606": " wrong",
  "1607": " Daisy",
  "1608": " makes",
  "1609": " What",
  "1610": " break",
  "1611": " black",
  "1612": "arent",
  "1613": "ee",
  "1614": "ner",
  "1615": "Spot",
  "1616": "Do",
  "1617": " deep",
  "1618": "thy",
  "1619": " music",
  "1620": " pol",
  "1621": " delic",
  "1622": "cess",
  "1623": "ued",
  "1624": " forgot",
  "1625": " bee",
  "1626": " parent",
  "1627": " castle",
  "1628": "ves",
  "1629": "olly",
  "1630": " em",
  "1631": "iet",
  "1632": " wear",
  "1633": " hit",
  "1634": "ister",
  "1635": "oun",
  "1636": " quiet",
  "1637": " round",
  "1638": "ance",
  "1639": " stu",
  "1640": " danced",
  "1641": " vis",
  "1642": "ully",
  "1643": " wants",
  "1644": " leaf",
  "1645": " monster",
  "1646": " nap",
  "1647": " John",
  "1648": " understand",
  "1649": "ang",
  "1650": " bowl",
  "1651": "os",
  "1652": "rot",
  "1653": "ren",
  "1654": " bor",
  "1655": " talked",
  "1656": "itten",
  "1657": " dry",
  "1658": " faster",
  "1659": " cookies",
  "1660": " brought",
  "1661": "fully",
  "1662": " leg",
  "1663": "ross",
  "1664": " mum",
  "1665": "zz",
  "1666": " side",
  "1667": "ts",
  "1668": "From",
  "1669": " sign",
  "1670": " Inside",
  "1671": " smart",
  "1672": "cy",
  "1673": " rocks",
  "1674": " someone",
  "1675": "His",
  "1676": " poin",
  "1677": " sec",
  "1678": " sharing",
  "1679": " fox",
  "1680": " well",
  "1681": " res",
  "1682": " rel",
  "1683": " happen",
  "1684": " button",
  "1685": " branch",
  "1686": " Lila",
  "1687": " really",
  "1688": " finished",
  "1689": "ence",
  "1690": "ards",
  "1691": " dinner",
  "1692": " sister",
  "1693": " flying",
  "1694": "eddy",
  "1695": " contin",
  "1696": " worried",
  "1697": " ele",
  "1698": " To",
  "1699": " visit",
  "1700": " Maybe",
  "1701": " beach",
  "1702": " que",
  "1703": " secret",
  "1704": " el",
  "1705": " Sarah",
  "1706": " king",
  "1707": "John",
  "1708": "gy",
  "1709": " today",
  "1710": " perfect",
  "1711": " river",
  "1712": " everything",
  "1713": " silly",
  "1714": " shin",
  "1715": " Joe",
  "1716": " danger",
  "1717": "ipp",
  "1718": " children",
  "1719": " gu",
  "1720": " Soon",
  "1721": " field",
  "1722": " filled",
  "1723": " fur",
  "1724": " else",
  "1725": " smiles",
  "1726": " welc",
  "1727": " At",
  "1728": " wish",
  "1729": " Em",
  "1730": "While",
  "1731": " sang",
  "1732": " gi",
  "1733": "ze",
  "1734": " pudd",
  "1735": " snack",
  "1736": " eating",
  "1737": " realized",
  "1738": " pieces",
  "1739": " promised",
  "1740": "ord",
  "1741": " spr",
  "1742": " pig",
  "1743": " free",
  "1744": " continued",
  "1745": " bite",
  "1746": "ead",
  "1747": " parents",
  "1748": " carefully",
  "1749": "ated",
  "1750": "itting",
  "1751": " ear",
  "1752": "Just",
  "1753": " jar",
  "1754": "Maybe",
  "1755": " cow",
  "1756": "Amy",
  "1757": " blank",
  "1758": " drag",
  "1759": "stead",
  "1760": " orange",
  "1761": " mud",
  "1762": " crying",
  "1763": " blanket",
  "1764": " enough",
  "1765": " rolled",
  "1766": "cket",
  "1767": " soup",
  "1768": " sail",
  "1769": " purp",
  "1770": "imi",
  "1771": " yes",
  "1772": "ale",
  "1773": " drink",
  "1774": " snake",
  "1775": "ses",
  "1776": " boun",
  "1777": " pet",
  "1778": " crab",
  "1779": " throw",
  "1780": " laughing",
  "1781": " fairy",
  "1782": " words",
  "1783": " amazing",
  "1784": " bath",
  "1785": "ich",
  "1786": " purple",
  "1787": " Z",
  "1788": " without",
  "1789": "ire",
  "1790": " bottle",
  "1791": " Billy",
  "1792": " gift",
  "1793": " grandma",
  "1794": "Fin",
  "1795": "used",
  "1796": "ons",
  "1797": " past",
  "1798": " money",
  "1799": "iver",
  "1800": "fort",
  "1801": " mail",
  "1802": " Gra",
  "1803": " barked",
  "1804": " wagged",
  "1805": " att",
  "1806": "chool",
  "1807": " monkey",
  "1808": " doctor",
  "1809": "unch",
  "1810": " brown",
  "1811": " moved",
  "1812": "ises",
  "1813": " asks",
  "1814": " getting",
  "1815": " closed",
  "1816": " whe",
  "1817": " welcome",
  "1818": " su",
  "1819": " candy",
  "1820": " school",
  "1821": " morning",
  "1822": " owner",
  "1823": "gg",
  "1824": " lon",
  "1825": " mother",
  "1826": " higher",
  "1827": " sitting",
  "1828": " treasure",
  "1829": ".”",
  "1830": " smo",
  "1831": "!”",
  "1832": " dangerous",
  "1833": " lonely",
  "1834": " Ch",
  "1835": " living",
  "1836": " apples",
  "1837": "ush",
  "1838": " shop",
  "1839": "ased",
  "1840": " strange",
  "1841": "vel",
  "1842": " shining",
  "1843": " road",
  "1844": "ere",
  "1845": " Tommy",
  "1846": " creat",
  "1847": "una",
  "1848": " paw",
  "1849": " ra",
  "1850": "ey",
  "1851": " shoes",
  "1852": " pre",
  "1853": "ible",
  "1854": " -",
  "1855": " stre",
  "1856": " talking",
  "1857": "althy",
  "1858": " caught",
  "1859": " egg",
  "1860": "ol",
  "1861": " pass",
  "1862": "me",
  "1863": " lake",
  "1864": " runs",
  "1865": " buck",
  "1866": " letter",
  "1867": " wings",
  "1868": " chee",
  "1869": "fish",
  "1870": " mad",
  "1871": " fan",
  "1872": "asket",
  "1873": " basket",
  "1874": "ass",
  "1875": " dragon",
  "1876": "app",
  "1877": "Mommy",
  "1878": "set",
  "1879": "cks",
  "1880": " stone",
  "1881": " thinks",
  "1882": " stand",
  "1883": " delicious",
  "1884": " nose",
  "1885": " puddle",
  "1886": " tom",
  "1887": " Bl",
  "1888": " Mimi",
  "1889": " belie",
  "1890": " farmer",
  "1891": " same",
  "1892": " years",
  "1893": "board",
  "1894": " teddy",
  "1895": " bat",
  "1896": "isk",
  "1897": "itch",
  "1898": " mine",
  "1899": " sear",
  "1900": " coat",
  "1901": "ches",
  "1902": "igh",
  "1903": " days",
  "1904": " bring",
  "1905": " gentle",
  "1906": " fit",
  "1907": " start",
  "1908": " finally",
  "1909": " whist",
  "1910": " cray",
  "1911": "igg",
  "1912": " scream",
  "1913": " kite",
  "1914": " pill",
  "1915": "phant",
  "1916": "arm",
  "1917": " vill",
  "1918": " cho",
  "1919": " singing",
  "1920": "ella",
  "1921": "sw",
  "1922": "ined",
  "1923": " tasty",
  "1924": " ph",
  "1925": " ben",
  "1926": " trou",
  "1927": " shell",
  "1928": " herself",
  "1929": " hoped",
  "1930": " answ",
  "1931": " wore",
  "1932": " swings",
  "1933": "sy",
  "1934": " hor",
  "1935": " belong",
  "1936": "Please",
  "1937": " push",
  "1938": " bush",
  "1939": "iskers",
  "1940": " carrot",
  "1941": " arri",
  "1942": "aughty",
  "1943": " teach",
  "1944": "bow",
  "1945": "ract",
  "1946": " naughty",
  "1947": " elephant",
  "1948": " dropped",
  "1949": " shap",
  "1950": "ier",
  "1951": " coll",
  "1952": "sc",
  "1953": " teac",
  "1954": "emy",
  "1955": " woke",
  "1956": "ball",
  "1957": " pile",
  "1958": " hiding",
  "1959": " cour",
  "1960": "isa",
  "1961": "erry",
  "1962": " touc",
  "1963": " min",
  "1964": " puppy",
  "1965": "'ll",
  "1966": " seem",
  "1967": "llie",
  "1968": " twins",
  "1969": "ama",
  "1970": " lunch",
  "1971": " bow",
  "1972": " sack",
  "1973": " pers",
  "1974": " course",
  "1975": " cheered",
  "1976": " shapes",
  "1977": " Jen",
  "1978": " grew",
  "1979": "fused",
  "1980": " rope",
  "1981": " village",
  "1982": "irth",
  "1983": "irthday",
  "1984": " juice",
  "1985": "ipped",
  "1986": " rainbow",
  "1987": " spin",
  "1988": "OK",
  "1989": " shook",
  "1990": "Jack",
  "1991": " spoon",
  "1992": " bench",
  "1993": " street",
  "1994": " fence",
  "1995": " cute",
  "1996": " Fred",
  "1997": " rob",
  "1998": " nut",
  "1999": " cheese",
  "2000": " prob",
  "2001": " touched",
  "2002": "idge",
  "2003": "col",
  "2004": " joy",
  "2005": " Whiskers",
  "2006": " arrived",
  "2007": " seed",
  "2008": " war",
  "2009": " teacher",
  "2010": " corn",
  "2011": "Good",
  "2012": " forever",
  "2013": " able",
  "2014": " bell",
  "2015": " few",
  "2016": " carry",
  "2017": " most",
  "2018": " plane",
  "2019": " Blue",
  "2020": "lem",
  "2021": " eas",
  "2022": " sounds",
  "2023": "lla",
  "2024": " des",
  "2025": " spo",
  "2026": " problem",
  "2027": " birthday",
  "2028": " power",
  "2029": " inc",
  "2030": "umb",
  "2031": "br",
  "2032": " bugs",
  "2033": "ilk",
  "2034": " wonderful",
  "2035": " dolls",
  "2036": " busy",
  "2037": "ato",
  "2038": "irp",
  "2039": "eb",
  "2040": " wra",
  "2041": " promise",
  "2042": " Thank",
  "2043": " feels",
  "2044": "ian",
  "2045": " Emma",
  "2046": "eter",
  "2047": " bread",
  "2048": " neck",
  "2049": "Finally",
  "2050": " milk",
  "2051": " robot",
  "2052": " rec",
  "2053": " shy",
  "2054": "ountain",
  "2055": " kiss",
  "2056": "irt",
  "2057": " heart",
  "2058": " band",
  "2059": " cave",
  "2060": " pocket",
  "2061": "ub",
  "2062": " helpful",
  "2063": "gly",
  "2064": " slowly",
  "2065": " believe",
  "2066": " shake",
  "2067": "umpy",
  "2068": "eared",
  "2069": " patient",
  "2070": " pop",
  "2071": " ob",
  "2072": "arp",
  "2073": " live",
  "2074": " storm",
  "2075": " holding",
  "2076": " ugly",
  "2077": " towards",
  "2078": " upset",
  "2079": " turt",
  "2080": " shr",
  "2081": "adow",
  "2082": " cover",
  "2083": " kitten",
  "2084": "ost",
  "2085": " Remy",
  "2086": " sharp",
  "2087": " disapp",
  "2088": " stories",
  "2089": " suc",
  "2090": " honey",
  "2091": "ove",
  "2092": " Bella",
  "2093": "read",
  "2094": " noises",
  "2095": " Le",
  "2096": " cir",
  "2097": " balls",
  "2098": " spark",
  "2099": " gray",
  "2100": " dist",
  "2101": " dirt",
  "2102": "oggy",
  "2103": " late",
  "2104": " driver",
  "2105": " seat",
  "2106": " bucket",
  "2107": " meet",
  "2108": " young",
  "2109": " amazed",
  "2110": " turtle",
  "2111": "alm",
  "2112": " spid",
  "2113": " treats",
  "2114": " magical",
  "2115": "unt",
  "2116": "ator",
  "2117": " glow",
  "2118": " seek",
  "2119": " zoom",
  "2120": " lem",
  "2121": " sandw",
  "2122": "fortable",
  "2123": "umber",
  "2124": " trip",
  "2125": " mist",
  "2126": "ourn",
  "2127": " splas",
  "2128": " mark",
  "2129": " journ",
  "2130": " fold",
  "2131": " mach",
  "2132": " puzz",
  "2133": " part",
  "2134": "ling",
  "2135": " horse",
  "2136": " organ",
  "2137": " wild",
  "2138": " princess",
  "2139": "pping",
  "2140": "oose",
  "2141": " cookie",
  "2142": "Sure",
  "2143": "ens",
  "2144": " hugs",
  "2145": " Mark",
  "2146": " taking",
  "2147": "ung",
  "2148": " wheel",
  "2149": "epend",
  "2150": " cloth",
  "2151": " Lisa",
  "2152": " sug",
  "2153": " instead",
  "2154": " bubb",
  "2155": " string",
  "2156": " net",
  "2157": " drove",
  "2158": "iling",
  "2159": " rude",
  "2160": " huge",
  "2161": " Jim",
  "2162": " coin",
  "2163": " stars",
  "2164": " fighting",
  "2165": "Be",
  "2166": " spicy",
  "2167": " lucky",
  "2168": "Of",
  "2169": " craw",
  "2170": "Hey",
  "2171": " bone",
  "2172": " inv",
  "2173": " Grandma",
  "2174": "ors",
  "2175": "not",
  "2176": " ca",
  "2177": "pper",
  "2178": " forget",
  "2179": "up",
  "2180": " di",
  "2181": "aur",
  "2182": " sal",
  "2183": " Finally",
  "2184": " cannot",
  "2185": " whistle",
  "2186": " card",
  "2187": " sick",
  "2188": " path",
  "2189": " cou",
  "2190": " spider",
  "2191": " wide",
  "2192": "Lila",
  "2193": " foot",
  "2194": " snowman",
  "2195": " songs",
  "2196": " life",
  "2197": " pillow",
  "2198": "ize",
  "2199": "ular",
  "2200": " Just",
  "2201": "Later",
  "2202": "est",
  "2203": " Ann",
  "2204": "ert",
  "2205": " fixed",
  "2206": " giant",
  "2207": "oph",
  "2208": "rill",
  "2209": " nod",
  "2210": " boss",
  "2211": " last",
  "2212": " comes",
  "2213": " joke",
  "2214": " moon",
  "2215": " taste",
  "2216": "den",
  "2217": " machine",
  "2218": " grumpy",
  "2219": " wave",
  "2220": " thin",
  "2221": " drive",
  "2222": " cart",
  "2223": " ash",
  "2224": " ser",
  "2225": " grab",
  "2226": " peace",
  "2227": "lower",
  "2228": " daddy",
  "2229": " On",
  "2230": " Leo",
  "2231": "ery",
  "2232": " sel",
  "2233": " shelf",
  "2234": " hidden",
  "2235": "erest",
  "2236": " suddenly",
  "2237": " wasn",
  "2238": " write",
  "2239": " landed",
  "2240": " confused",
  "2241": " ring",
  "2242": " change",
  "2243": " worm",
  "2244": " interest",
  "2245": " chased",
  "2246": "oop",
  "2247": " fruits",
  "2248": " sour",
  "2249": "ity",
  "2250": " myster",
  "2251": " bark",
  "2252": " rad",
  "2253": " smooth",
  "2254": " Come",
  "2255": " adventures",
  "2256": " val",
  "2257": " stepped",
  "2258": " fle",
  "2259": "ope",
  "2260": " oven",
  "2261": " takes",
  "2262": " missed",
  "2263": " selfish",
  "2264": "kin",
  "2265": " sheep",
  "2266": " messy",
  "2267": "To",
  "2268": " across",
  "2269": " ent",
  "2270": " exp",
  "2271": "to",
  "2272": " ce",
  "2273": " later",
  "2274": "elly",
  "2275": " N",
  "2276": "ife",
  "2277": " sticks",
  "2278": " tie",
  "2279": "St",
  "2280": "ever",
  "2281": " Luna",
  "2282": " step",
  "2283": " bought",
  "2284": " drew",
  "2285": " tea",
  "2286": "pect",
  "2287": " ban",
  "2288": "irpy",
  "2289": "box",
  "2290": "?”",
  "2291": " wash",
  "2292": " lay",
  "2293": " pour",
  "2294": " beak",
  "2295": "ose",
  "2296": " jog",
  "2297": " grate",
  "2298": " ducks",
  "2299": " spe",
  "2300": " legs",
  "2301": "ugg",
  "2302": " fil",
  "2303": " Bu",
  "2304": " emp",
  "2305": "mer",
  "2306": " hope",
  "2307": " empty",
  "2308": " slid",
  "2309": " feather",
  "2310": " sleepy",
  "2311": " drum",
  "2312": "amed",
  "2313": "ars",
  "2314": "eth",
  "2315": " zoo",
  "2316": " pan",
  "2317": " phone",
  "2318": " grateful",
  "2319": " fing",
  "2320": "ions",
  "2321": " lemon",
  "2322": "let",
  "2323": " Cat",
  "2324": " clever",
  "2325": " Molly",
  "2326": " smelly",
  "2327": " imag",
  "2328": " splash",
  "2329": " interesting",
  "2330": " Jill",
  "2331": " save",
  "2332": " chick",
  "2333": " calm",
  "2334": " med",
  "2335": " watching",
  "2336": "Soon",
  "2337": "izzy",
  "2338": "izz",
  "2339": " plate",
  "2340": " ign",
  "2341": "yard",
  "2342": " clouds",
  "2343": " banan",
  "2344": " line",
  "2345": " faces",
  "2346": " ba",
  "2347": " act",
  "2348": " lift",
  "2349": " though",
  "2350": " wolf",
  "2351": " backyard",
  "2352": "wel",
  "2353": " seemed",
  "2354": " dogs",
  "2355": " spray",
  "2356": "Come",
  "2357": " prot",
  "2358": " whole",
  "2359": " mot",
  "2360": " fancy",
  "2361": " Daddy",
  "2362": " quest",
  "2363": " arms",
  "2364": " puzzle",
  "2365": " healthy",
  "2366": " supp",
  "2367": "ward",
  "2368": " finish",
  "2369": "erly",
  "2370": " along",
  "2371": "llo",
  "2372": " rocket",
  "2373": " explain",
  "2374": "dge",
  "2375": " easy",
  "2376": " jewel",
  "2377": "ont",
  "2378": " pract",
  "2379": " jelly",
  "2380": " Chirpy",
  "2381": " tid",
  "2382": " fake",
  "2383": " crayons",
  "2384": " wondered",
  "2385": " maybe",
  "2386": " scar",
  "2387": " ship",
  "2388": " nothing",
  "2389": "onest",
  "2390": " emb",
  "2391": "iger",
  "2392": " pool",
  "2393": " longer",
  "2394": " anyone",
  "2395": " Be",
  "2396": " Jerry",
  "2397": "ually",
  "2398": " front",
  "2399": " working",
  "2400": " gives",
  "2401": "irr",
  "2402": " pack",
  "2403": " such",
  "2404": " Bunny",
  "2405": "ocked",
  "2406": "ment",
  "2407": " bossy",
  "2408": " Doggy",
  "2409": " trouble",
  "2410": " smelled",
  "2411": " saved",
  "2412": " pin",
  "2413": "rass",
  "2414": " neigh",
  "2415": "arrass",
  "2416": "iting",
  "2417": " honest",
  "2418": " av",
  "2419": "arge",
  "2420": " embarrass",
  "2421": " van",
  "2422": " forgive",
  "2423": " tidy",
  "2424": " weak",
  "2425": "urse",
  "2426": " puts",
  "2427": "unk",
  "2428": " kick",
  "2429": " shirt",
  "2430": " With",
  "2431": " mind",
  "2432": " Ollie",
  "2433": " neighb",
  "2434": " plants",
  "2435": " sol",
  "2436": " Momo",
  "2437": " gently",
  "2438": " cozy",
  "2439": "orrow",
  "2440": "ming",
  "2441": " explor",
  "2442": "sp",
  "2443": " mistake",
  "2444": " yog",
  "2445": "oc",
  "2446": "oomy",
  "2447": " pointed",
  "2448": " lad",
  "2449": " af",
  "2450": " stood",
  "2451": "ork",
  "2452": " onto",
  "2453": " waiting",
  "2454": " jumping",
  "2455": " prince",
  "2456": " cross",
  "2457": " lock",
  "2458": " cheer",
  "2459": " queen",
  "2460": " Why",
  "2461": " Mary",
  "2462": " wing",
  "2463": "ones",
  "2464": "we",
  "2465": " large",
  "2466": " lovely",
  "2467": "ult",
  "2468": " sur",
  "2469": " ret",
  "2470": "And",
  "2471": " deer",
  "2472": " chew",
  "2473": " couch",
  "2474": " bal",
  "2475": "aughter",
  "2476": " stret",
  "2477": "era",
  "2478": " Their",
  "2479": " places",
  "2480": " My",
  "2481": " ladder",
  "2482": "oof",
  "2483": " return",
  "2484": "raid",
  "2485": " ants",
  "2486": " dish",
  "2487": " afraid",
  "2488": " cleaned",
  "2489": " tomorrow",
  "2490": " building",
  "2491": " sandwich",
  "2492": " person",
  "2493": "Sally",
  "2494": "ned",
  "2495": " pretended",
  "2496": " bounce",
  "2497": " wip",
  "2498": "gest",
  "2499": " match",
  "2500": " rich",
  "2501": "uce",
  "2502": " pizz",
  "2503": " gather",
  "2504": " search",
  "2505": " boring",
  "2506": "oman",
  "2507": " Somet",
  "2508": " teeth",
  "2509": " hum",
  "2510": "Kitty",
  "2511": "My",
  "2512": "aced",
  "2513": " daughter",
  "2514": " woman",
  "2515": " scarf",
  "2516": " goes",
  "2517": " Together",
  "2518": " law",
  "2519": " stra",
  "2520": " swimming",
  "2521": " furry",
  "2522": " splashed",
  "2523": " pri",
  "2524": " loves",
  "2525": " true",
  "2526": " screamed",
  "2527": " lazy",
  "2528": " gen",
  "2529": " answer",
  "2530": " number",
  "2531": " eag",
  "2532": " ashamed",
  "2533": " pizza",
  "2534": "aw",
  "2535": " appeared",
  "2536": " fear",
  "2537": " nearby",
  "2538": " powerful",
  "2539": " flag",
  "2540": " St",
  "2541": " hang",
  "2542": "vous",
  "2543": " clown",
  "2544": "ek",
  "2545": " chase",
  "2546": " motor",
  "2547": " wand",
  "2548": " TV",
  "2549": " rub",
  "2550": " success",
  "2551": " chocol",
  "2552": " If",
  "2553": " creative",
  "2554": " trust",
  "2555": " wearing",
  "2556": " noisy",
  "2557": " matter",
  "2558": "pa",
  "2559": " dig",
  "2560": " hello",
  "2561": " ner",
  "2562": " tool",
  "2563": " saf",
  "2564": " Bird",
  "2565": "ado",
  "2566": " nervous",
  "2567": "elp",
  "2568": " test",
  "2569": " smiling",
  "2570": " sold",
  "2571": "icked",
  "2572": "oppy",
  "2573": "osaur",
  "2574": " circle",
  "2575": "mb",
  "2576": " map",
  "2577": " drank",
  "2578": " class",
  "2579": " tries",
  "2580": " chocolate",
  "2581": " Please",
  "2582": " impress",
  "2583": " knee",
  "2584": " gener",
  "2585": " dinosaur",
  "2586": " polite",
  "2587": " mirr",
  "2588": " Bobby",
  "2589": " Tiny",
  "2590": " balloons",
  "2591": " gold",
  "2592": " rare",
  "2593": " protect",
  "2594": " cand",
  "2595": "Stop",
  "2596": " carried",
  "2597": " Go",
  "2598": "ensive",
  "2599": " ap",
  "2600": " shadow",
  "2601": " mirror",
  "2602": " Don",
  "2603": " bald",
  "2604": " gun",
  "2605": "ina",
  "2606": " expensive",
  "2607": " reg",
  "2608": "iff",
  "2609": " mysterious",
  "2610": " Sp",
  "2611": " pump",
  "2612": " note",
  "2613": " hero",
  "2614": " march",
  "2615": " har",
  "2616": "arl",
  "2617": " icy",
  "2618": " respect",
  "2619": " weird",
  "2620": " snee",
  "2621": " cri",
  "2622": " gate",
  "2623": " soap",
  "2624": "rag",
  "2625": "ute",
  "2626": "issors",
  "2627": " these",
  "2628": " poor",
  "2629": " towel",
  "2630": " whale",
  "2631": " feet",
  "2632": " tape",
  "2633": " dizzy",
  "2634": "itter",
  "2635": " generous",
  "2636": "ndpa",
  "2637": " pres",
  "2638": " Benny",
  "2639": "nic",
  "2640": " disco",
  "2641": "Help",
  "2642": "ventually",
  "2643": " picnic",
  "2644": " mic",
  "2645": " lead",
  "2646": " sque",
  "2647": " embarrassed",
  "2648": " journey",
  "2649": " sugar",
  "2650": "isp",
  "2651": "scape",
  "2652": " boot",
  "2653": " tent",
  "2654": " peaceful",
  "2655": " fat",
  "2656": " Bear",
  "2657": " scissors",
  "2658": " tasted",
  "2659": " yelled",
  "2660": "Tommy",
  "2661": " tick",
  "2662": " mel",
  "2663": " brush",
  "2664": " dancing",
  "2665": "ness",
  "2666": " glue",
  "2667": " hur",
  "2668": " rough",
  "2669": " clap",
  "2670": " bridge",
  "2671": "ote",
  "2672": " decor",
  "2673": " closet",
  "2674": " crown",
  "2675": " stir",
  "2676": "ual",
  "2677": "imp",
  "2678": " print",
  "2679": " Sometimes",
  "2680": "owed",
  "2681": "airs",
  "2682": " How",
  "2683": "ume",
  "2684": " cap",
  "2685": " lamp",
  "2686": " vase",
  "2687": " scare",
  "2688": "lebr",
  "2689": " relie",
  "2690": "lves",
  "2691": "any",
  "2692": " eld",
  "2693": " tele",
  "2694": " celebr",
  "2695": " gigg",
  "2696": " whisp",
  "2697": " log",
  "2698": " sco",
  "2699": " blow",
  "2700": " painted",
  "2701": " Ducky",
  "2702": " pay",
  "2703": "erries",
  "2704": " wis",
  "2705": " berries",
  "2706": " mixed",
  "2707": " spread",
  "2708": " wouldn",
  "2709": " cage",
  "2710": " bake",
  "2711": "rob",
  "2712": "getable",
  "2713": " mountain",
  "2714": " adm",
  "2715": " drawing",
  "2716": " become",
  "2717": " famous",
  "2718": " knocked",
  "2719": " bean",
  "2720": " norm",
  "2721": " vegetable",
  "2722": "asp",
  "2723": " kicked",
  "2724": "ustr",
  "2725": " shark",
  "2726": "ser",
  "2727": " incred",
  "2728": " lose",
  "2729": " normal",
  "2730": " wrap",
  "2731": "ced",
  "2732": " group",
  "2733": " thick",
  "2734": " 3",
  "2735": " fine",
  "2736": " glass",
  "2737": " ignor",
  "2738": " clock",
  "2739": " team",
  "2740": " elderly",
  "2741": " clear",
  "2742": " corner",
  "2743": " frustr",
  "2744": " mighty",
  "2745": "robe",
  "2746": " cone",
  "2747": " incredible",
  "2748": " Br",
  "2749": "ighed",
  "2750": "Dad",
  "2751": " moms",
  "2752": " balance",
  "2753": " sock",
  "2754": " space",
  "2755": " jam",
  "2756": "ragile",
  "2757": " fright",
  "2758": " organized",
  "2759": " branches",
  "2760": " roar",
  "2761": "port",
  "2762": " sword",
  "2763": "alous",
  "2764": " Mama",
  "2765": " guess",
  "2766": " fool",
  "2767": " sell",
  "2768": " feed",
  "2769": " Some",
  "2770": " which",
  "2771": " horn",
  "2772": " present",
  "2773": " jealous",
  "2774": " yarn",
  "2775": "ony",
  "2776": " fragile",
  "2777": " burn",
  "2778": " understood",
  "2779": " mis",
  "2780": " stubb",
  "2781": " ter",
  "2782": " frustrated",
  "2783": "Where",
  "2784": "ray",
  "2785": " hose",
  "2786": "cient",
  "2787": " spent",
  "2788": " shoe",
  "2789": " taught",
  "2790": " stubborn",
  "2791": " twist",
  "2792": " creature",
  "2793": " chest",
  "2794": " spoiled",
  "2795": " relieved",
  "2796": " ancient",
  "2797": "ique",
  "2798": " wake",
  "2799": " fier",
  "2800": " pray",
  "2801": " fierce",
  "2802": " eggs",
  "2803": " cab",
  "2804": " terri",
  "2805": " barn",
  "2806": " pumpkin",
  "2807": " comfortable",
  "2808": " ord",
  "2809": "ym",
  "2810": " frightened",
  "2811": "orry",
  "2812": " toug",
  "2813": " unique",
  "2814": " measure",
  "2815": " goat",
  "2816": " wagon",
  "2817": " unus",
  "2818": " breath",
  "2819": " foolish",
  "2820": " useful",
  "2821": " exploring",
  "2822": "dle",
  "2823": " straw",
  "2824": " unusual",
  "2825": " dug",
  "2826": " clay",
  "2827": " discover",
  "2828": " tomato",
  "2829": " Pe",
  "2830": " dead",
  "2831": " finding",
  "2832": " police",
  "2833": " wrote",
  "2834": " clum",
  "2835": " exam",
  "2836": "lace",
  "2837": " waves",
  "2838": " square",
  "2839": " hears",
  "2840": " cabin",
  "2841": " tells",
  "2842": " necklace",
  "2843": " dull",
  "2844": " clumsy",
  "2845": " tough",
  "2846": " bubbles",
  "2847": " nosy",
  "2848": "kn",
  "2849": " searched",
  "2850": "Together",
  "2851": " washed",
  "2852": " bathroom",
  "2853": " paws",
  "2854": "bby",
  "2855": "ond",
  "2856": "unn",
  "2857": "anged",
  "2858": " board",
  "2859": "fic",
  "2860": "known",
  "2861": " asking",
  "2862": " crazy",
  "2863": " thankful",
  "2864": " sunf",
  "2865": " bitter",
  "2866": "yal",
  "2867": " pir",
  "2868": "berry",
  "2869": "alk",
  "2870": " ind",
  "2871": " diffic",
  "2872": " rose",
  "2873": "cil",
  "2874": " swan",
  "2875": " bloom",
  "2876": " unknown",
  "2877": " Ella",
  "2878": " covered",
  "2879": " difficult",
  "2880": " add",
  "2881": " pencil",
  "2882": " finger",
  "2883": " ham",
  "2884": " hoop",
  "2885": " jet",
  "2886": " witch",
  "2887": " drop",
  "2888": "Me",
  "2889": " '",
  "2890": " chicken",
  "2891": " gloomy",
  "2892": "apped",
  "2893": " loyal",
  "2894": "als",
  "2895": "Here",
  "2896": " wealthy",
  "2897": "com",
  "2898": "light",
  "2899": " unl",
  "2900": " cats",
  "2901": " ending",
  "2902": " guit",
  "2903": "bled",
  "2904": "shine",
  "2905": " dove",
  "2906": " joined",
  "2907": " cher",
  "2908": "anut",
  "2909": " mov",
  "2910": " terrible",
  "2911": " yours",
  "2912": "iant",
  "2913": " U",
  "2914": " Rex",
  "2915": " salad",
  "2916": " Andy",
  "2917": " nuts",
  "2918": " rat",
  "2919": "ground",
  "2920": " tiger",
  "2921": " potato",
  "2922": " mask",
  "2923": "xible",
  "2924": "selves",
  "2925": " value",
  "2926": " changed",
  "2927": " moving",
  "2928": " exciting",
  "2929": "ormous",
  "2930": " Many",
  "2931": " body",
  "2932": " Tr",
  "2933": " toast",
  "2934": " record",
  "2935": "erp",
  "2936": " zip",
  "2937": " disg",
  "2938": " cheap",
  "2939": " guitar",
  "2940": "irsty",
  "2941": " knowing",
  "2942": " adventur",
  "2943": " yourself",
  "2944": " enormous",
  "2945": " hairy",
  "2946": "Every",
  "2947": " shoot",
  "2948": " Brown",
  "2949": " bored",
  "2950": " pepper",
  "2951": " remind",
  "2952": "ory",
  "2953": "land",
  "2954": " acorn",
  "2955": " adventurous",
  "2956": " sunshine",
  "2957": " smaller",
  "2958": " stuff",
  "2959": " hats",
  "2960": " solve",
  "2961": " Jimmy",
  "2962": " flexible",
  "2963": " cost",
  "2964": "rilliant",
  "2965": " knife",
  "2966": " perform",
  "2967": " snacks",
  "2968": " nods",
  "2969": " shore",
  "2970": " brilliant",
  "2971": " thirsty",
  "2972": " delicate",
  "2973": " frown",
  "2974": " disgust",
  "2975": " collect",
  "2976": " stri",
  "2977": " seeds",
  "2978": " counted",
  "2979": " asleep",
  "2980": " banana",
  "2981": "reen",
  "2982": " mailbox",
  "2983": "iness",
  "2984": " dough",
  "2985": " trick",
  "2986": " neighbor",
  "2987": "ungle",
  "2988": " heal",
  "2989": "live",
  "2990": "Who",
  "2991": " stage",
  "2992": "ident",
  "2993": " market",
  "2994": " cube",
  "2995": " stat",
  "2996": " jungle",
  "2997": " squee",
  "2998": "mbre",
  "2999": " explained",
  "3000": "ates",
  "3001": " umbre",
  "3002": " disgusting",
  "3003": "Jim",
  "3004": "fted",
  "3005": " lab",
  "3006": " jolly",
  "3007": " flash",
  "3008": "und",
  "3009": " fridge",
  "3010": "inal",
  "3011": "pid",
  "3012": "ilt",
  "3013": " crane",
  "3014": "corn",
  "3015": " suit",
  "3016": " rh",
  "3017": "iddle",
  "3018": " sunflower",
  "3019": " times",
  "3020": " Al",
  "3021": "erpill",
  "3022": " caterpill",
  "3023": " relax",
  "3024": " shiver",
  "3025": " four",
  "3026": " island",
  "3027": "iginal",
  "3028": " harm",
  "3029": "ict",
  "3030": " While",
  "3031": "ying",
  "3032": " stupid",
  "3033": " medic",
  "3034": " Instead",
  "3035": " comb",
  "3036": " goose",
  "3037": " cro",
  "3038": "edient",
  "3039": " Will",
  "3040": " stove",
  "3041": "If",
  "3042": "Are",
  "3043": " independ",
  "3044": "Mum",
  "3045": "most",
  "3046": " spring",
  "3047": " gem",
  "3048": " batter",
  "3049": " sighed",
  "3050": " vegetables",
  "3051": " stones",
  "3052": "pes",
  "3053": " shine",
  "3054": "How",
  "3055": " medicine",
  "3056": " depend",
  "3057": " rug",
  "3058": " Your",
  "3059": " careless",
  "3060": " original",
  "3061": " stamp",
  "3062": " gar",
  "3063": " cries",
  "3064": "Inside",
  "3065": "gu",
  "3066": " carrots",
  "3067": " scr",
  "3068": " successful",
  "3069": " sauce",
  "3070": " jeep",
  "3071": " popcorn",
  "3072": " meal",
  "3073": " obedient",
  "3074": " almost",
  "3075": " middle",
  "3076": " magn",
  "3077": " study",
  "3078": " independent",
  "3079": " fearful",
  "3080": " jack",
  "3081": "met",
  "3082": "inky",
  "3083": "Sorry",
  "3084": " Sammy",
  "3085": " escape",
  "3086": " caterpillar",
  "3087": " serious",
  "3088": " peanut",
  "3089": " bedroom",
  "3090": " eager",
  "3091": "aken",
  "3092": " gets",
  "3093": " parrot",
  "3094": " statue",
  "3095": " helmet",
  "3096": " pebb",
  "3097": " No",
  "3098": " fountain",
  "3099": " raven",
  "3100": " ang",
  "3101": " pasta",
  "3102": " umbrella",
  "3103": " compet",
  "3104": "There",
  "3105": " jacket",
  "3106": " belonged",
  "3107": " dest",
  "3108": " filthy",
  "3109": " design",
  "3110": " borrow",
  "3111": " cam",
  "3112": "erable",
  "3113": " houses",
  "3114": " prize",
  "3115": " hay",
  "3116": " brace",
  "3117": " standing",
  "3118": " miserable",
  "3119": " raced",
  "3120": " taken",
  "3121": "ages",
  "3122": " fork",
  "3123": " crayon",
  "3124": " painting",
  "3125": "io",
  "3126": " triang",
  "3127": " impressive",
  "3128": " choose",
  "3129": " fig",
  "3130": " tied",
  "3131": "iable",
  "3132": " spotted",
  "3133": " lifted",
  "3134": " slipped",
  "3135": "ours",
  "3136": " tank",
  "3137": " thoughtful",
  "3138": " dependable",
  "3139": " steal",
  "3140": " garage",
  "3141": "enny",
  "3142": " built",
  "3143": " mush",
  "3144": " er",
  "3145": "ipe",
  "3146": " mole",
  "3147": " crawled",
  "3148": " scale",
  "3149": " boats",
  "3150": " pian",
  "3151": " pant",
  "3152": " hammer",
  "3153": " bottom",
  "3154": "lph",
  "3155": " cheerful",
  "3156": " using",
  "3157": " smoke",
  "3158": " picks",
  "3159": " moder",
  "3160": "berries",
  "3161": " shows",
  "3162": "rn",
  "3163": " piano",
  "3164": " magnet",
  "3165": "dile",
  "3166": "codile",
  "3167": " hurts",
  "3168": "inary",
  "3169": " ref",
  "3170": " crack",
  "3171": " eng",
  "3172": " aunt",
  "3173": " melon",
  "3174": " waff",
  "3175": " modern",
  "3176": " dolph",
  "3177": "unnel",
  "3178": "cream",
  "3179": "pack",
  "3180": " tunnel",
  "3181": "oin",
  "3182": " arrow",
  "3183": " reliable",
  "3184": " hopping",
  "3185": " mushroom",
  "3186": " jug",
  "3187": "Timmy",
  "3188": " squash",
  "3189": " gum",
  "3190": " sink",
  "3191": " movie",
  "3192": " tax",
  "3193": " flute",
  "3194": " beet",
  "3195": " lean",
  "3196": "Their",
  "3197": "iv",
  "3198": " popular",
  "3199": "opter",
  "3200": "icopter",
  "3201": " cryst",
  "3202": " ones",
  "3203": " sil",
  "3204": " competit",
  "3205": " helicopter",
  "3206": "aser",
  "3207": " needs",
  "3208": "ipop",
  "3209": "llipop",
  "3210": " crocodile",
  "3211": " liz",
  "3212": "Molly",
  "3213": " press",
  "3214": " troubled",
  "3215": " pige",
  "3216": " locked",
  "3217": " tricks",
  "3218": " lollipop",
  "3219": " playful",
  "3220": " humble",
  "3221": " taxi",
  "3222": " kissed",
  "3223": " low",
  "3224": "appy",
  "3225": "comfortable",
  "3226": "amond",
  "3227": " uncomfortable",
  "3228": " rid",
  "3229": "host",
  "3230": " wander",
  "3231": "atch",
  "3232": " angel",
  "3233": "edy",
  "3234": "cles",
  "3235": " torn",
  "3236": " grace",
  "3237": " anx",
  "3238": " wrapped",
  "3239": " muff",
  "3240": " twig",
  "3241": " pants",
  "3242": " disappoin",
  "3243": " Sn",
  "3244": " helps",
  "3245": " diamond",
  "3246": " camera",
  "3247": "atter",
  "3248": "oto",
  "3249": " anxious",
  "3250": " ghost",
  "3251": " tears",
  "3252": " ruined",
  "3253": "cident",
  "3254": " Jenny",
  "3255": "ilty",
  "3256": " quar",
  "3257": "aff",
  "3258": " Even",
  "3259": " fis",
  "3260": "opl",
  "3261": " belt",
  "3262": "eropl",
  "3263": " env",
  "3264": " guilty",
  "3265": " bull",
  "3266": " aeropl",
  "3267": " helpless",
  "3268": " happiness",
  "3269": " lizard",
  "3270": " boys",
  "3271": "cut",
  "3272": "ext",
  "3273": " cere",
  "3274": " walks",
  "3275": "cean",
  "3276": " passed",
  "3277": " meant",
  "3278": " ocean",
  "3279": " fluffy",
  "3280": " wire",
  "3281": " nail",
  "3282": " bracelet",
  "3283": " deaf",
  "3284": "zed",
  "3285": " stretch",
  "3286": " candle",
  "3287": " cact",
  "3288": "tt",
  "3289": " beetle",
  "3290": " mop",
  "3291": " harmless",
  "3292": "umpet",
  "3293": " ordinary",
  "3294": " answered",
  "3295": " collar",
  "3296": " cop",
  "3297": " bees",
  "3298": " tire",
  "3299": " shape",
  "3300": " quarrel",
  "3301": " radio",
  "3302": " flashlight",
  "3303": " crystal",
  "3304": " harder",
  "3305": " poured",
  "3306": " trumpet",
  "3307": " engine",
  "3308": "Mama",
  "3309": " persist",
  "3310": " hunt",
  "3311": " tooth",
  "3312": " cereal",
  "3313": " invited",
  "3314": " comput",
  "3315": " tag",
  "3316": " office",
  "3317": " melt",
  "3318": " spill",
  "3319": " charm",
  "3320": "coa",
  "3321": " lit",
  "3322": " scoot",
  "3323": " comet",
  "3324": " triangle",
  "3325": "ief",
  "3326": " mug",
  "3327": " rep",
  "3328": "ube",
  "3329": " yogurt",
  "3330": " spend",
  "3331": " compass",
  "3332": " accident",
  "3333": " shade",
  "3334": "hett",
  "3335": "aghett",
  "3336": "aghetti",
  "3337": " disappointed",
  "3338": " licked",
  "3339": " cactus",
  "3340": " pale",
  "3341": " cush",
  "3342": " figure",
  "3343": " regular",
  "3344": " giving",
  "3345": " avoc",
  "3346": " pro",
  "3347": " sheet",
  "3348": " whispered",
  "3349": "aze",
  "3350": "uth",
  "3351": "ellig",
  "3352": " create",
  "3353": " barber",
  "3354": " intellig",
  "3355": " pipe",
  "3356": " rode",
  "3357": " roof",
  "3358": "Jane",
  "3359": " thread",
  "3360": "ither",
  "3361": " vi",
  "3362": " load",
  "3363": " libr",
  "3364": " gifted",
  "3365": "ccol",
  "3366": " practiced",
  "3367": " delight",
  "3368": "ccoli",
  "3369": " harsh",
  "3370": "asses",
  "3371": " pow",
  "3372": " dust",
  "3373": " True",
  "3374": " bicy",
  "3375": "azz",
  "3376": " spaghetti",
  "3377": " compassion",
  "3378": " sailed",
  "3379": "urkey",
  "3380": "ubby",
  "3381": " forward",
  "3382": " persistent",
  "3383": " speed",
  "3384": " mitten",
  "3385": " cocoa",
  "3386": " envel",
  "3387": " questions",
  "3388": " computer",
  "3389": " coo",
  "3390": " feathers",
  "3391": "hip",
  "3392": " glove",
  "3393": "ging",
  "3394": "Bobo",
  "3395": " rice",
  "3396": " shrimp",
  "3397": " desk",
  "3398": " stream",
  "3399": " inse",
  "3400": " pigeon",
  "3401": " charming",
  "3402": " ears",
  "3403": " carp",
  "3404": "lcan",
  "3405": " raft",
  "3406": " envious",
  "3407": " knot",
  "3408": " turkey",
  "3409": " stronger",
  "3410": "omes",
  "3411": " coins",
  "3412": " tap",
  "3413": "lcano",
  "3414": "weet",
  "3415": " trap",
  "3416": "umbers",
  "3417": " aeroplane",
  "3418": " trunk",
  "3419": " wheat",
  "3420": " boxes",
  "3421": " chubby",
  "3422": " carpet",
  "3423": " restless",
  "3424": " intelligent",
  "3425": " tube",
  "3426": " spun",
  "3427": " dreams",
  "3428": " friendship",
  "3429": "ulif",
  "3430": "olin",
  "3431": " half",
  "3432": " loop",
  "3433": " crawl",
  "3434": " broccoli",
  "3435": " onion",
  "3436": " deliver",
  "3437": "anger",
  "3438": " acce",
  "3439": " vide",
  "3440": " volcano",
  "3441": " Jake",
  "3442": " sle",
  "3443": " track",
  "3444": " bri",
  "3445": " caulif",
  "3446": " vine",
  "3447": "ye",
  "3448": " ticket",
  "3449": " thief",
  "3450": "essie",
  "3451": "cycle",
  "3452": " louder",
  "3453": " insect",
  "3454": " numbers",
  "3455": "asing",
  "3456": " yaw",
  "3457": " haircut",
  "3458": "ital",
  "3459": " sleeping",
  "3460": " mill",
  "3461": " eventually",
  "3462": " alert",
  "3463": " excite",
  "3464": " pebble",
  "3465": " hosp",
  "3466": " attract",
  "3467": " planet",
  "3468": " Today",
  "3469": " univer",
  "3470": "isted",
  "3471": "ulu",
  "3472": " hospital",
  "3473": " eraser",
  "3474": " returned",
  "3475": " destro",
  "3476": " graceful",
  "3477": " happening",
  "3478": "ache",
  "3479": " OK",
  "3480": " Emily",
  "3481": " decide",
  "3482": " learning",
  "3483": " screen",
  "3484": "rework",
  "3485": " nicely",
  "3486": " leop",
  "3487": " cauliflower",
  "3488": " competitive",
  "3489": " poem",
  "3490": " celebrate",
  "3491": " curt",
  "3492": " peach",
  "3493": " soldier",
  "3494": " saus",
  "3495": " parade",
  "3496": "atient",
  "3497": " attractive",
  "3498": " curtain",
  "3499": " dolphin",
  "3500": " base",
  "3501": " violin",
  "3502": " ways",
  "3503": "Go",
  "3504": "ats",
  "3505": " travel",
  "3506": "ten",
  "3507": " rod",
  "3508": " ignorant",
  "3509": "ulb",
  "3510": " wheels",
  "3511": " yach",
  "3512": " scatter",
  "3513": " deter",
  "3514": " compassionate",
  "3515": " barrel",
  "3516": " envelope",
  "3517": " bubble",
  "3518": " lying",
  "3519": " firework",
  "3520": " sort",
  "3521": " question",
  "3522": "zzy",
  "3523": " Pipp",
  "3524": " scooter",
  "3525": " determ",
  "3526": " rag",
  "3527": " thu",
  "3528": " bicycle",
  "3529": "elery",
  "3530": " needle",
  "3531": " Fr",
  "3532": " judge",
  "3533": " bulb",
  "3534": " leopard",
  "3535": " tem",
  "3536": " yacht",
  "3537": " pony",
  "3538": " cricket",
  "3539": " order",
  "3540": " homes",
  "3541": " ador",
  "3542": "tern",
  "3543": " truth",
  "3544": " hook",
  "3545": "dom",
  "3546": " rubbed",
  "3547": "ete",
  "3548": "igator",
  "3549": " bushes",
  "3550": "Sarah",
  "3551": " uncle",
  "3552": " cushion",
  "3553": " spell",
  "3554": " grown",
  "3555": " cooked",
  "3556": " adorable",
  "3557": " chalk",
  "3558": " soar",
  "3559": " purse",
  "3560": " skin",
  "3561": " themselves",
  "3562": " impatient",
  "3563": " celery",
  "3564": " tray",
  "3565": " shells",
  "3566": " pengu",
  "3567": " sniff",
  "3568": " prun",
  "3569": " walls",
  "3570": " seal",
  "3571": " lively",
  "3572": " case",
  "3573": " alligator",
  "3574": " distant",
  "3575": " radish",
  "3576": " saying",
  "3577": " speak",
  "3578": " motorcycle",
  "3579": " meat",
  "3580": " send",
  "3581": "illa",
  "3582": " spinning",
  "3583": " forth",
  "3584": " counting",
  "3585": " enth",
  "3586": " bounced",
  "3587": " chain",
  "3588": " ed",
  "3589": " cleaning",
  "3590": "ebra",
  "3591": " film",
  "3592": " slept",
  "3593": " pit",
  "3594": " surf",
  "3595": " marry",
  "3596": "usia",
  "3597": " wallet",
  "3598": " enthusia",
  "3599": " metal",
  "3600": "urb",
  "3601": "ebook",
  "3602": " bin",
  "3603": " week",
  "3604": " notebook",
  "3605": " wiped",
  "3606": " skip",
  "3607": "ision",
  "3608": "chair",
  "3609": " biggest",
  "3610": " impro",
  "3611": " avocado",
  "3612": " behave",
  "3613": " destroy",
  "3614": "vator",
  "3615": " bandage",
  "3616": " laughs",
  "3617": " steak",
  "3618": " pattern",
  "3619": " Sh",
  "3620": " post",
  "3621": " elevator",
  "3622": " Buzz",
  "3623": "usie",
  "3624": " dive",
  "3625": " shut",
  "3626": " skipped",
  "3627": " unlock",
  "3628": " diary",
  "3629": "dest",
  "3630": "ject",
  "3631": " zebra",
  "3632": " bags",
  "3633": "ating",
  "3634": " armchair",
  "3635": "rage",
  "3636": "aged",
  "3637": " disturb",
  "3638": " oy",
  "3639": " pole",
  "3640": " showing",
  "3641": " gathered",
  "3642": " club",
  "3643": " nurse",
  "3644": "bul",
  "3645": " earth",
  "3646": " enc",
  "3647": " stranger",
  "3648": " sweater",
  "3649": " jellyfish",
  "3650": " screw",
  "3651": " temp",
  "3652": " Poppy",
  "3653": " compl",
  "3654": " mixer",
  "3655": "Give",
  "3656": " skull",
  "3657": " lime",
  "3658": " bump",
  "3659": "bulance",
  "3660": " ambulance",
  "3661": "nam",
  "3662": " father",
  "3663": " journal",
  "3664": "Gra",
  "3665": " loudly",
  "3666": "ito",
  "3667": " folder",
  "3668": " shield",
  "3669": " Bet",
  "3670": " Lulu",
  "3671": " library",
  "3672": " Peter",
  "3673": " buttons",
  "3674": " playground",
  "3675": " trucks",
  "3676": " ink",
  "3677": " lights",
  "3678": " tummy",
  "3679": " pointing",
  "3680": " city",
  "3681": " decorate",
  "3682": " station",
  "3683": "irit",
  "3684": " prep",
  "3685": " falls",
  "3686": "quito",
  "3687": " Polly",
  "3688": "Billy",
  "3689": " fu",
  "3690": " Fo",
  "3691": "ention",
  "3692": "nger",
  "3693": " Birdy",
  "3694": "lies",
  "3695": " herb",
  "3696": "nament",
  "3697": " ornament",
  "3698": " modest",
  "3699": " guard",
  "3700": " mos",
  "3701": " knows",
  "3702": " cord",
  "3703": " polish",
  "3704": " marble",
  "3705": "oby",
  "3706": " mosquito",
  "3707": "umbled",
  "3708": " salt",
  "3709": " attic",
  "3710": " whenever",
  "3711": " vest",
  "3712": "ctop",
  "3713": " resc",
  "3714": " yet",
  "3715": " ple",
  "3716": " disappeared",
  "3717": "ceed",
  "3718": " strawberry",
  "3719": " once",
  "3720": " Mum",
  "3721": " kay",
  "3722": " brothers",
  "3723": " itch",
  "3724": " pirate",
  "3725": " football",
  "3726": " split",
  "3727": "kele",
  "3728": "keleton",
  "3729": " hipp",
  "3730": " aut",
  "3731": " led",
  "3732": "uring",
  "3733": "ctopus",
  "3734": " driving",
  "3735": " cable",
  "3736": " support",
  "3737": " calling",
  "3738": " cupboard",
  "3739": "aky",
  "3740": "ushed",
  "3741": " wishes",
  "3742": " complet",
  "3743": " tripped",
  "3744": " root",
  "3745": " kayak",
  "3746": " octopus",
  "3747": "obile",
  "3748": " added",
  "3749": " edge",
  "3750": " mild",
  "3751": "stic",
  "3752": " determined",
  "3753": " succeed",
  "3754": "?\".",
  "3755": " reading",
  "3756": "omobile",
  "3757": " coal",
  "3758": "Well",
  "3759": "gl",
  "3760": "utes",
  "3761": "par",
  "3762": " suggest",
  "3763": " stack",
  "3764": " thunder",
  "3765": " kindness",
  "3766": " automobile",
  "3767": " complain",
  "3768": " enthusiastic",
  "3769": " sneeze",
  "3770": " cartoon",
  "3771": " yoga",
  "3772": " Little",
  "3773": " growl",
  "3774": "htub",
  "3775": " flea",
  "3776": "la",
  "3777": " meadow",
  "3778": " drawer",
  "3779": " bathtub",
  "3780": " ribb",
  "3781": "ophone",
  "3782": " means",
  "3783": " hall",
  "3784": " golf",
  "3785": " skeleton",
  "3786": " math",
  "3787": " veil",
  "3788": " hunter",
  "3789": " gor",
  "3790": " flame",
  "3791": " poke",
  "3792": " video",
  "3793": " chess",
  "3794": " troph",
  "3795": " cups",
  "3796": " glowing",
  "3797": " matt",
  "3798": " oyster",
  "3799": "work",
  "3800": " penny",
  "3801": " spear",
  "3802": " itself",
  "3803": " drawings",
  "3804": " hippo",
  "3805": " repair",
  "3806": " switch",
  "3807": "glasses",
  "3808": " sunglasses",
  "3809": " teleph",
  "3810": " costume",
  "3811": " dess",
  "3812": " zipp",
  "3813": ",”",
  "3814": " repe",
  "3815": " muffin",
  "3816": " arg",
  "3817": " pastry",
  "3818": " pun",
  "3819": " rolling",
  "3820": " minutes",
  "3821": " packed",
  "3822": " makeup",
  "3823": "iron",
  "3824": "ric",
  "3825": " People",
  "3826": " waffle",
  "3827": "case",
  "3828": " handle",
  "3829": " pear",
  "3830": " maze",
  "3831": " telephone",
  "3832": " pine",
  "3833": "ait",
  "3834": " gear",
  "3835": " hedge",
  "3836": " mattress",
  "3837": " package",
  "3838": "aving",
  "3839": " Miss",
  "3840": " shocked",
  "3841": "ines",
  "3842": " trophy",
  "3843": " powder",
  "3844": " knight",
  "3845": " cob",
  "3846": " missile",
  "3847": " managed",
  "3848": " frame",
  "3849": " encou",
  "3850": " wife",
  "3851": " ok",
  "3852": " separ",
  "3853": "web",
  "3854": " stairs",
  "3855": " rot",
  "3856": " camp",
  "3857": "urch",
  "3858": "rophone",
  "3859": " magaz",
  "3860": " strugg",
  "3861": " colour",
  "3862": " grapes",
  "3863": "time",
  "3864": " file",
  "3865": "head",
  "3866": " Tina",
  "3867": " basketball",
  "3868": "Bye",
  "3869": "old",
  "3870": "per",
  "3871": " cobweb",
  "3872": "Re",
  "3873": "Jimmy",
  "3874": " Tweet",
  "3875": "See",
  "3876": " perm",
  "3877": " wool",
  "3878": " Dan",
  "3879": " microphone",
  "3880": "esday",
  "3881": " eye",
  "3882": " leash",
  "3883": " gasp",
  "3884": "iew",
  "3885": "keep",
  "3886": " weep",
  "3887": " barking",
  "3888": "ature",
  "3889": " safely",
  "3890": " tear",
  "3891": " view",
  "3892": "ffe",
  "3893": " slides",
  "3894": " steps",
  "3895": "istol",
  "3896": "ffee",
  "3897": " bananas",
  "3898": " staff",
  "3899": " spirit",
  "3900": " task",
  "3901": " giggled",
  "3902": " hoc",
  "3903": " hockey",
  "3904": " vend",
  "3905": " those",
  "3906": " gorilla",
  "3907": "Jill",
  "3908": " cooler",
  "3909": " Rose",
  "3910": "was",
  "3911": "cing",
  "3912": " early",
  "3913": " marched",
  "3914": "rosc",
  "3915": " mint",
  "3916": " Look",
  "3917": "washer",
  "3918": " flour",
  "3919": " hotel",
  "3920": "hic",
  "3921": " sailor",
  "3922": " dessert",
  "3923": " photo",
  "3924": "roscope",
  "3925": " vehic",
  "3926": "ilot",
  "3927": " often",
  "3928": " church",
  "3929": " Pete",
  "3930": " cooking",
  "3931": " remain",
  "3932": " five",
  "3933": " sausage",
  "3934": "otter",
  "3935": " ten",
  "3936": " tools",
  "3937": " medal",
  "3938": " either",
  "3939": " fireman",
  "3940": "chor",
  "3941": " grandpa",
  "3942": " otter",
  "3943": " baseball",
  "3944": " pretending",
  "3945": " pistol",
  "3946": " dishwasher",
  "3947": " rever",
  "3948": " organize",
  "3949": " pee",
  "3950": " vendor",
  "3951": " knock",
  "3952": " sight",
  "3953": " grill",
  "3954": " temple",
  "3955": " battery",
  "3956": " thinking",
  "3957": " opens",
  "3958": " ow",
  "3959": " realised",
  "3960": " iron",
  "3961": " laser",
  "3962": " sne",
  "3963": " sandbox",
  "3964": " oil",
  "3965": " patch",
  "3966": " hours",
  "3967": " rise",
  "3968": " whip",
  "3969": "'d",
  "3970": "ctory",
  "3971": " Give",
  "3972": " anchor",
  "3973": " trash",
  "3974": "ense",
  "3975": " short",
  "3976": "ney",
  "3977": " Betty",
  "3978": " rhin",
  "3979": " factory",
  "3980": "seum",
  "3981": " may",
  "3982": " ward",
  "3983": "ately",
  "3984": " cardboard",
  "3985": "ugged",
  "3986": " lotion",
  "3987": "Al",
  "3988": " message",
  "3989": " valu",
  "3990": " wardrobe",
  "3991": " cell",
  "3992": " museum",
  "3993": "apers",
  "3994": " ur",
  "3995": "ination",
  "3996": " hanging",
  "3997": "ucet",
  "3998": "ailable",
  "3999": " Sunny",
  "4000": " Zoom",
  "4001": " hive",
  "4002": "eer",
  "4003": " towers",
  "4004": "keeper",
  "4005": " blackboard",
  "4006": " mem",
  "4007": " excitement",
  "4008": " coffee",
  "4009": " pilot",
  "4010": "ready",
  "4011": "Fluffy",
  "4012": " napkin",
  "4013": " penguin",
  "4014": "ron",
  "4015": " check",
  "4016": " reward",
  "4017": "loo",
  "4018": " quit",
  "4019": " Pippin",
  "4020": " cane",
  "4021": " picking",
  "4022": "place",
  "4023": " Snow",
  "4024": "azor",
  "4025": " faucet",
  "4026": " ig",
  "4027": " passport",
  "4028": " Rob",
  "4029": " stumbled",
  "4030": " dreamed",
  "4031": " igloo",
  "4032": " Bessie",
  "4033": "aroo",
  "4034": "angaroo",
  "4035": " freez",
  "4036": " juicy",
  "4037": " allowed",
  "4038": "play",
  "4039": " holds",
  "4040": " already",
  "4041": " available",
  "4042": " sett",
  "4043": " bathe",
  "4044": " tornado",
  "4045": "imney",
  "4046": " fingers",
  "4047": "htray",
  "4048": " hanger",
  "4049": " newsp",
  "4050": " size",
  "4051": " laund",
  "4052": " lend",
  "4053": " chimney",
  "4054": " laundry",
  "4055": " oak",
  "4056": " fisher",
  "4057": " kangaroo",
  "4058": " men",
  "4059": " Everywhere",
  "4060": " telling",
  "4061": "Em",
  "4062": " novel",
  "4063": "body",
  "4064": " mummy",
  "4065": " pal",
  "4066": " mule",
  "4067": " cherries",
  "4068": " notice",
  "4069": " practice",
  "4070": " spilled",
  "4071": " reind",
  "4072": " complete",
  "4073": " enjoying",
  "4074": " microscope",
  "4075": "arian",
  "4076": "ampoo",
  "4077": " gain",
  "4078": " sub",
  "4079": " fireplace",
  "4080": " imagine",
  "4081": "anda",
  "4082": " display",
  "4083": "ocer",
  "4084": " Zip",
  "4085": " fastest",
  "4086": " magazine",
  "4087": " hurry",
  "4088": " cabinet",
  "4089": " shrink",
  "4090": " ashtray",
  "4091": "Wait",
  "4092": " cows",
  "4093": " Spike",
  "4094": "Joe",
  "4095": "gen",
  "4096": " palace",
  "4097": " improve",
  "4098": "aches",
  "4099": " rake",
  "4100": " reindeer",
  "4101": " falling",
  "4102": "oceros",
  "4103": " skirt",
  "4104": "ured",
  "4105": " discovered",
  "4106": " stared",
  "4107": " roared",
  "4108": "aid",
  "4109": " silver",
  "4110": " tub",
  "4111": " trail",
  "4112": "Is",
  "4113": " miner",
  "4114": "come",
  "4115": " bill",
  "4116": "iction",
  "4117": " fog",
  "4118": " ax",
  "4119": "stairs",
  "4120": "ilet",
  "4121": " hut",
  "4122": " happier",
  "4123": " taller",
  "4124": "ictionary",
  "4125": " oats",
  "4126": " fisherman",
  "4127": " object",
  "4128": " por",
  "4129": "vision",
  "4130": " valuable",
  "4131": " shampoo",
  "4132": " holes",
  "4133": " offered",
  "4134": " boots",
  "4135": " rhinoceros",
  "4136": " names",
  "4137": " toilet",
  "4138": " climbing",
  "4139": " blin",
  "4140": "vice",
  "4141": "Ow",
  "4142": " stretched",
  "4143": "iest",
  "4144": " zipper",
  "4145": " listening",
  "4146": " sym",
  "4147": " bathrobe",
  "4148": "alend",
  "4149": " jewelry",
  "4150": " Here",
  "4151": " jokes",
  "4152": " television",
  "4153": " prov",
  "4154": " calend",
  "4155": " stops",
  "4156": " axe",
  "4157": " jumps",
  "4158": " fuel",
  "4159": "cu",
  "4160": " sparkly",
  "4161": " perfume",
  "4162": " Susie",
  "4163": " bury",
  "4164": "bol",
  "4165": "Mummy",
  "4166": "lu",
  "4167": " pressed",
  "4168": " Kim",
  "4169": "reek",
  "4170": " rece",
  "4171": "fa",
  "4172": " Toby",
  "4173": " neat",
  "4174": " creek",
  "4175": " popped",
  "4176": " opera",
  "4177": " calendar",
  "4178": " snap",
  "4179": " gasped",
  "4180": " attach",
  "4181": " symbol",
  "4182": " tuna",
  "4183": " Mar",
  "4184": " papers",
  "4185": "Mr",
  "4186": " unpack",
  "4187": " resist",
  "4188": " dictionary",
  "4189": " subway",
  "4190": " letters",
  "4191": " freezer",
  "4192": " chose",
  "4193": " pinch",
  "4194": "zag",
  "4195": " spoke",
  "4196": " anyway",
  "4197": " super",
  "4198": " porch",
  "4199": " helper",
  "4200": "affe",
  "4201": " bikes",
  "4202": " lie",
  "4203": "arry",
  "4204": "iches",
  "4205": " tightly",
  "4206": " comfort",
  "4207": " shaking",
  "4208": " bookcase",
  "4209": " son",
  "4210": " razor",
  "4211": "aurant",
  "4212": " sandwiches",
  "4213": " Are",
  "4214": "igzag",
  "4215": " weigh",
  "4216": " against",
  "4217": " stickers",
  "4218": " restaurant",
  "4219": " newspaper",
  "4220": " blouse",
  "4221": " vehicle",
  "4222": " swinging",
  "4223": " ped",
  "4224": " disag",
  "4225": " nature",
  "4226": " squirrels",
  "4227": "ival",
  "4228": " belongs",
  "4229": " swamp",
  "4230": " butterflies",
  "4231": " gym",
  "4232": "del",
  "4233": " inclu",
  "4234": " growing",
  "4235": " buckle",
  "4236": "omed",
  "4237": " stirred",
  "4238": " mustache",
  "4239": " billboard",
  "4240": "xy",
  "4241": " beep",
  "4242": "te",
  "4243": " alarm",
  "4244": " lightning",
  "4245": " lip",
  "4246": " fest",
  "4247": " hung",
  "4248": "utor",
  "4249": " distance",
  "4250": "ogn",
  "4251": " cards",
  "4252": " obser",
  "4253": " agree",
  "4254": "Little",
  "4255": " ext",
  "4256": " tease",
  "4257": " recogn",
  "4258": " rubber",
  "4259": "ik",
  "4260": " hate",
  "4261": "fast",
  "4262": "ef",
  "4263": "Ouch",
  "4264": " doesn",
  "4265": " musician",
  "4266": " advice",
  "4267": " beef",
  "4268": " serve",
  "4269": "aspoon",
  "4270": " sweetie",
  "4271": " model",
  "4272": "lter",
  "4273": " crib",
  "4274": " blueberries",
  "4275": " sofa",
  "4276": " circles",
  "4277": " breakfast",
  "4278": " tutor",
  "4279": "asis",
  "4280": " bookshe",
  "4281": " giraffe",
  "4282": "stri",
  "4283": " festival",
  "4284": " separate",
  "4285": " shelter",
  "4286": " gas",
  "4287": " airport",
  "4288": " olive",
  "4289": " rail",
  "4290": " bookshelf",
  "4291": " frogs",
  "4292": " teaspoon",
  "4293": " reverse",
  "4294": " junk",
  "4295": " riding",
  "4296": " pleased",
  "4297": " drain",
  "4298": " Mrs",
  "4299": " wipe",
  "4300": " oasis",
  "4301": " soil",
  "4302": " ahead",
  "4303": " rescue",
  "4304": " leaving",
  "4305": "ummer",
  "4306": " painter",
  "4307": " squeeze",
  "4308": " chance",
  "4309": " poked",
  "4310": " knob",
  "4311": " Teddy",
  "4312": " peeked",
  "4313": " lumber",
  "4314": " trains",
  "4315": " extra",
  "4316": " slipp",
  "4317": " quiz",
  "4318": " refused",
  "4319": "res",
  "4320": "rmomet",
  "4321": " page",
  "4322": " rules",
  "4323": " happens",
  "4324": " sounded",
  "4325": " ins",
  "4326": " point",
  "4327": " winter",
  "4328": " dancer",
  "4329": " Grandpa",
  "4330": " birdc",
  "4331": " disappear",
  "4332": "rmometer",
  "4333": " Dolly",
  "4334": " weather",
  "4335": " waste",
  "4336": " lic",
  "4337": " birdcage",
  "4338": " theater",
  "4339": " reef",
  "4340": " carrying",
  "4341": "Daisy",
  "4342": " invite",
  "4343": "iform",
  "4344": " goal",
  "4345": " ostri",
  "4346": " uniform",
  "4347": " swung",
  "4348": " trade",
  "4349": " cliff",
  "4350": "ience",
  "4351": " lawn",
  "4352": "ola",
  "4353": " leaned",
  "4354": " Pandy",
  "4355": "angu",
  "4356": " accept",
  "4357": " admire",
  "4358": " fort",
  "4359": " accidentally",
  "4360": " pastel",
  "4361": "bbles",
  "4362": " stom",
  "4363": " langu",
  "4364": " twir",
  "4365": " suff",
  "4366": " panda",
  "4367": "riger",
  "4368": " bet",
  "4369": "rigerator",
  "4370": " peek",
  "4371": "render",
  "4372": " blinked",
  "4373": " starts",
  "4374": "na",
  "4375": " refrigerator",
  "4376": " anywhere",
  "4377": "!\".",
  "4378": " imagined",
  "4379": " dreaming",
  "4380": " remove",
  "4381": "night",
  "4382": " shower",
  "4383": " Lee",
  "4384": " Co",
  "4385": " classroom",
  "4386": " ceiling",
  "4387": " caring",
  "4388": "ium",
  "4389": " grand",
  "4390": " missing",
  "4391": "aked",
  "4392": " license",
  "4393": " stable",
  "4394": " thermometer",
  "4395": " monkeys",
  "4396": "astic",
  "4397": " warned",
  "4398": " summer",
  "4399": " Where",
  "4400": " above",
  "4401": " brick",
  "4402": "ected",
  "4403": " cudd",
  "4404": " problems",
  "4405": "amber",
  "4406": " chasing",
  "4407": " label",
  "4408": " apron",
  "4409": " sent",
  "4410": "urnit",
  "4411": "urniture",
  "4412": " lawy",
  "4413": " lid",
  "4414": "uggage",
  "4415": "med",
  "4416": " respectful",
  "4417": " furniture",
  "4418": " frowned",
  "4419": " zoomed",
  "4420": " pages",
  "4421": " prevent",
  "4422": " bent",
  "4423": " luggage",
  "4424": " mistakes",
  "4425": " sunset",
  "4426": " ostrich",
  "4427": "ison",
  "4428": " suggested",
  "4429": " windows",
  "4430": "ations",
  "4431": " jail",
  "4432": "low",
  "4433": " wine",
  "4434": " ribbon",
  "4435": " older",
  "4436": " shouts",
  "4437": " grape",
  "4438": " Cl",
  "4439": " wigg",
  "4440": "ucture",
  "4441": " structure",
  "4442": " spoil",
  "4443": "eor",
  "4444": " fixing",
  "4445": " chamber",
  "4446": " lions",
  "4447": " delay",
  "4448": " finds",
  "4449": " handed",
  "4450": " searching",
  "4451": " unite",
  "4452": "Did",
  "4453": " fought",
  "4454": " lawyer",
  "4455": " brightly",
  "4456": " pair",
  "4457": " meeting",
  "4458": " choice",
  "4459": " surprises",
  "4460": " Ellie",
  "4461": " art",
  "4462": " Un",
  "4463": "Ch",
  "4464": " favour",
  "4465": "eterin",
  "4466": "eterinarian",
  "4467": "adium",
  "4468": " stadium",
  "4469": " proudly",
  "4470": "iki",
  "4471": " veterinarian",
  "4472": "vet",
  "4473": "rod",
  "4474": " chairs",
  "4475": " slip",
  "4476": " Spe",
  "4477": " sadly",
  "4478": " Bow",
  "4479": " incre",
  "4480": " Carl",
  "4481": " puddles",
  "4482": " berry",
  "4483": " introd",
  "4484": " ranch",
  "4485": "veal",
  "4486": " Boun",
  "4487": " argue",
  "4488": " V",
  "4489": " admired",
  "4490": " cur",
  "4491": " favourite",
  "4492": "Your",
  "4493": " inf",
  "4494": " excitedly",
  "4495": " rac",
  "4496": " grabs",
  "4497": "mend",
  "4498": " steam",
  "4499": "thank",
  "4500": " human",
  "4501": "eorge",
  "4502": "sity",
  "4503": " Hel",
  "4504": " pushing",
  "4505": " saving",
  "4506": " Red",
  "4507": " reveal",
  "4508": "ommend",
  "4509": "alley",
  "4510": " yield",
  "4511": "olog",
  "4512": " mall",
  "4513": " reminded",
  "4514": " recommend",
  "4515": " leak",
  "4516": " surrender",
  "4517": " harb",
  "4518": " appl",
  "4519": "cuss",
  "4520": "aul",
  "4521": " weap",
  "4522": " regret",
  "4523": " putting",
  "4524": " valley",
  "4525": " mineral",
  "4526": " evening",
  "4527": "elcome",
  "4528": " matches",
  "4529": " forgave",
  "4530": " sneezed",
  "4531": " pup",
  "4532": " aw",
  "4533": " rushed",
  "4534": "ecause",
  "4535": " spade",
  "4536": " apolog",
  "4537": " plates",
  "4538": " discuss",
  "4539": " prepare",
  "4540": " harbor",
  "4541": " ignore",
  "4542": " Big",
  "4543": " country",
  "4544": " language",
  "4545": " Buzzy",
  "4546": " pulls",
  "4547": " plastic",
  "4548": " supply",
  "4549": " float",
  "4550": " sniffed",
  "4551": " Jazz",
  "4552": " replace",
  "4553": " meas",
  "4554": " shovel",
  "4555": " Bill",
  "4556": " raise",
  "4557": " Next",
  "4558": " fre",
  "4559": " cared",
  "4560": " socks",
  "4561": " strip",
  "4562": " doors",
  "4563": " mystery",
  "4564": " lives",
  "4565": " restore",
  "4566": " sticker",
  "4567": " sudden",
  "4568": "ari",
  "4569": " kinds",
  "4570": " slippery",
  "4571": "ero",
  "4572": " Ow",
  "4573": " player",
  "4574": " panic",
  "4575": "ricane",
  "4576": " hoping",
  "4577": "iday",
  "4578": " shone",
  "4579": "lex",
  "4580": "hero",
  "4581": " beg",
  "4582": " Mike",
  "4583": " Binky",
  "4584": " superhero",
  "4585": " delighted",
  "4586": " gro",
  "4587": "Yay",
  "4588": "aud",
  "4589": "chan",
  "4590": " chickens",
  "4591": " shoulder",
  "4592": " rained",
  "4593": " colourful",
  "4594": " breat",
  "4595": " Alice",
  "4596": " claw",
  "4597": " Bubbles",
  "4598": "Yuck",
  "4599": " softly",
  "4600": "rise",
  "4601": " port",
  "4602": "Grandma",
  "4603": " hol",
  "4604": "icer",
  "4605": " holiday",
  "4606": " \\xe2\\x80",
  "4607": " barks",
  "4608": "ason",
  "4609": " throwing",
  "4610": " planes",
  "4611": "Mary",
  "4612": " bend",
  "4613": " Freddy",
  "4614": " shakes",
  "4615": " infant",
  "4616": " ended",
  "4617": " shivering",
  "4618": " kneel",
  "4619": " sunrise",
  "4620": " pushes",
  "4621": " Olive",
  "4622": " thanks",
  "4623": " fresh",
  "4624": " suffer",
  "4625": " points",
  "4626": "imed",
  "4627": "wards",
  "4628": " Pat",
  "4629": " tip",
  "4630": " Speedy",
  "4631": " freeze",
  "4632": " keeping",
  "4633": " Would",
  "4634": " giggle",
  "4635": " copper",
  "4636": " smells",
  "4637": " dear",
  "4638": " enter",
  "4639": " provide",
  "4640": "cast",
  "4641": "chanic",
  "4642": " dishes",
  "4643": " End",
  "4644": "cond",
  "4645": " unh",
  "4646": "Next",
  "4647": " applaud",
  "4648": " heads",
  "4649": " hurricane",
  "4650": " cherry",
  "4651": " thumb",
  "4652": " menu",
  "4653": " meowed",
  "4654": " mass",
  "4655": " second",
  "4656": " brighter",
  "4657": "ince",
  "4658": " sandcast",
  "4659": " mechanic",
  "4660": " wre",
  "4661": " sprayed",
  "4662": " letting",
  "4663": " event",
  "4664": " weapon",
  "4665": " laught",
  "4666": " x",
  "4667": " laughter",
  "4668": " clapping",
  "4669": " feelings",
  "4670": "Will",
  "4671": "icky",
  "4672": " splashing",
  "4673": "ement",
  "4674": " Or",
  "4675": "acked",
  "4676": " castles",
  "4677": " Fl",
  "4678": "cer",
  "4679": " score",
  "4680": "apping",
  "4681": " universe",
  "4682": " navy",
  "4683": " dem",
  "4684": " sticky",
  "4685": "ophie",
  "4686": " rooms",
  "4687": " row",
  "4688": " flies",
  "4689": "igi",
  "4690": " Dave",
  "4691": " unhappy",
  "4692": " greedy",
  "4693": " dare",
  "4694": " alive",
  "4695": " breaks",
  "4696": " ener",
  "4697": " courage",
  "4698": " invit",
  "4699": "Ready",
  "4700": " repeat",
  "4701": " demand",
  "4702": " trusted",
  "4703": "Lisa",
  "4704": " somewhere",
  "4705": "arlie",
  "4706": " prune",
  "4707": "bles",
  "4708": " wreck",
  "4709": " Y",
  "4710": " skill",
  "4711": " examine",
  "4712": " parts",
  "4713": "year",
  "4714": " eaten",
  "4715": "oe",
  "4716": "All",
  "4717": "erc",
  "4718": "enry",
  "4719": " mention",
  "4720": " raining",
  "4721": " Help",
  "4722": "Buddy",
  "4723": " throws",
  "4724": " jogged",
  "4725": "quest",
  "4726": " starting",
  "4727": " rush",
  "4728": " poison",
  "4729": " pirates",
  "4730": "heart",
  "4731": " vac",
  "4732": " content",
  "4733": "Emma",
  "4734": " Kiki",
  "4735": " sigh",
  "4736": " flapped",
  "4737": " drops",
  "4738": " chirp",
  "4739": " sport",
  "4740": "Qu",
  "4741": " sparkled",
  "4742": " Zoomy",
  "4743": " given",
  "4744": " streng",
  "4745": " steel",
  "4746": "Ann",
  "4747": " bumped",
  "4748": " yawned",
  "4749": " stud",
  "4750": " request",
  "4751": " scold",
  "4752": " myself",
  "4753": " strength",
  "4754": " shrugged",
  "4755": "Mark",
  "4756": " coats",
  "4757": " punish",
  "4758": " equ",
  "4759": " snugg",
  "4760": " university",
  "4761": " paid",
  "4762": " Johnny",
  "4763": " pigs",
  "4764": " scratch",
  "4765": " toe",
  "4766": " exerc",
  "4767": " tracks",
  "4768": " upstairs",
  "4769": " prayed",
  "4770": " crossed",
  "4771": " squeezed",
  "4772": " impressed",
  "4773": " flood",
  "4774": " bouncing",
  "4775": " Ru",
  "4776": "Alice",
  "4777": " rabbits",
  "4778": "ges",
  "4779": " badly",
  "4780": "..",
  "4781": " warn",
  "4782": " leather",
  "4783": " expect",
  "4784": " news",
  "4785": " tide",
  "4786": " Ted",
  "4787": " minute",
  "4788": " bears",
  "4789": " claws",
  "4790": " buzz",
  "4791": " sweetheart",
  "4792": " Sm",
  "4793": "yth",
  "4794": " nation",
  "4795": "Sh",
  "4796": "ythm",
  "4797": " vacation",
  "4798": " hist",
  "4799": " heat",
  "4800": " strawberries",
  "4801": " observe",
  "4802": " explored",
  "4803": " settle",
  "4804": " sandcastle",
  "4805": " yawn",
  "4806": " history",
  "4807": " Lilly",
  "4808": " Lola",
  "4809": "mare",
  "4810": " Mummy",
  "4811": " Sque",
  "4812": "ially",
  "4813": "inking",
  "4814": " believed",
  "4815": " horses",
  "4816": "Daddy",
  "4817": " Hoppy",
  "4818": " checked",
  "4819": " Mandy",
  "4820": " tour",
  "4821": " network",
  "4822": " cheek",
  "4823": " Under",
  "4824": " offer",
  "4825": " easily",
  "4826": " placed",
  "4827": "spec",
  "4828": " spots",
  "4829": " snowball",
  "4830": "ween",
  "4831": "men",
  "4832": " energy",
  "4833": " Bee",
  "4834": " imagination",
  "4835": " blueberry",
  "4836": "otten",
  "4837": " between",
  "4838": "specially",
  "4839": " Gigi",
  "4840": "izes",
  "4841": " daisy",
  "4842": " waving",
  "4843": "reeze",
  "4844": "reat",
  "4845": " vroom",
  "4846": " soak",
  "4847": " safari",
  "4848": " rhythm",
  "4849": " massage",
  "4850": " stomach",
  "4851": " baking",
  "4852": "quake",
  "4853": " nightmare",
  "4854": " insisted",
  "4855": " blowing",
  "4856": " entered",
  "4857": "Before",
  "4858": " stair",
  "4859": " palm",
  "4860": " beauty",
  "4861": " twisted",
  "4862": " bother",
  "4863": " writing",
  "4864": " scoop",
  "4865": " prunes",
  "4866": " brain",
  "4867": " ing",
  "4868": "ipment",
  "4869": " poppy",
  "4870": " hills",
  "4871": "noon",
  "4872": " afternoon",
  "4873": " equipment",
  "4874": " especially",
  "4875": "hest",
  "4876": " sir",
  "4877": " pad",
  "4878": " See",
  "4879": " ingred",
  "4880": " calls",
  "4881": " ingredient",
  "4882": " Fox",
  "4883": " earthquake",
  "4884": " ignored",
  "4885": " Snowy",
  "4886": " burned",
  "4887": " nobody",
  "4888": "mble",
  "4889": " sty",
  "4890": "apa",
  "4891": " sew",
  "4892": " tug",
  "4893": "isty",
  "4894": "xygen",
  "4895": " hearts",
  "4896": " lear",
  "4897": " learnt",
  "4898": " lemonade",
  "4899": " increase",
  "4900": "illie",
  "4901": "Jenny",
  "4902": " gaz",
  "4903": " backpack",
  "4904": " mailman",
  "4905": " whistled",
  "4906": " pedal",
  "4907": " Sk",
  "4908": "Fred",
  "4909": " shopkeeper",
  "4910": "ffic",
  "4911": " permit",
  "4912": " tremble",
  "4913": " yucky",
  "4914": "anges",
  "4915": " moves",
  "4916": " introduce",
  "4917": " lemons",
  "4918": " crash",
  "4919": " beans",
  "4920": " floated",
  "4921": "edn",
  "4922": "ednesday",
  "4923": "ittens",
  "4924": "Welcome",
  "4925": " planned",
  "4926": " strike",
  "4927": " traffic",
  "4928": " include",
  "4929": " slap",
  "4930": " racing",
  "4931": " Lucky",
  "4932": "resses",
  "4933": " wisdom",
  "4934": " pur",
  "4935": " wags",
  "4936": " Finny",
  "4937": "laimed",
  "4938": " George",
  "4939": " luck",
  "4940": " following",
  "4941": " price",
  "4942": "ecting",
  "4943": " mama",
  "4944": " pitch",
  "4945": " below",
  "4946": " Elly",
  "4947": " Have",
  "4948": "Le",
  "4949": " weight",
  "4950": " exclaimed",
  "4951": "house",
  "4952": " buried",
  "4953": " follows",
  "4954": " comf",
  "4955": " recognize",
  "4956": " ingredients",
  "4957": " furt",
  "4958": "tain",
  "4959": " candles",
  "4960": "Mimi",
  "4961": " marbles",
  "4962": "riage",
  "4963": "unday",
  "4964": "emember",
  "4965": "eration",
  "4966": " Alex",
  "4967": " apart",
  "4968": " Wednesday",
  "4969": " growled",
  "4970": "uct",
  "4971": " Su",
  "4972": "ores",
  "4973": " conf",
  "4974": " teaching",
  "4975": " hopes",
  "4976": " folded",
  "4977": " closely",
  "4978": " Finn",
  "4979": " Who",
  "4980": " heel",
  "4981": " Sunday",
  "4982": " encourage",
  "4983": " Paul",
  "4984": " Owl",
  "4985": " zigzag",
  "4986": " pulling",
  "4987": " digg",
  "4988": " bouncy",
  "4989": " further",
  "4990": " chewed",
  "4991": " digging",
  "4992": " winning",
  "4993": "Woof",
  "4994": "With",
  "4995": " dresses",
  "4996": " image",
  "4997": "rec",
  "4998": "cery",
  "4999": " shouting",
  "5000": " grocery",
  "5001": " twisty",
  "5002": " peanuts",
  "5003": " puzzles",
  "5004": "bbing",
  "5005": " Dog",
  "5006": "look",
  "5007": " scrat",
  "5008": " chores",
  "5009": " whisper",
  "5010": " Is",
  "5011": " spike",
  "5012": " Froggy",
  "5013": " cape",
  "5014": " snail",
  "5015": " acorns",
  "5016": " worms",
  "5017": "hood",
  "5018": " deeper",
  "5019": " urge",
  "5020": "ifi",
  "5021": " exper",
  "5022": " Whenever",
  "5023": " Tilly",
  "5024": " Squeaky",
  "5025": " Grace",
  "5026": " planted",
  "5027": " attention",
  "5028": "ecture",
  "5029": " exercise",
  "5030": " Danny",
  "5031": " cub",
  "5032": " operation",
  "5033": " underground",
  "5034": " hon",
  "5035": " agre",
  "5036": " quite",
  "5037": " creatures",
  "5038": " simp",
  "5039": "Everyone",
  "5040": " struggle",
  "5041": "oral",
  "5042": " Mittens",
  "5043": "ddy",
  "5044": " blood",
  "5045": " lecture",
  "5046": " washing",
  "5047": " hurting",
  "5048": " vanished",
  "5049": " gifts",
  "5050": " dressed",
  "5051": " invitation",
  "5052": " solved",
  "5053": " licks",
  "5054": " snuggled",
  "5055": " Sharing",
  "5056": "ippy",
  "5057": " ble",
  "5058": " marriage",
  "5059": " quietly",
  "5060": "gie",
  "5061": " warning",
  "5062": " jazz",
  "5063": " breathe",
  "5064": "reci",
  "5065": " elephants",
  "5066": " sizes",
  "5067": " dried",
  "5068": " fallen",
  "5069": " landscape",
  "5070": "ories",
  "5071": " sprink",
  "5072": " neighbour",
  "5073": " mice",
  "5074": "uesday",
  "5075": " appreci",
  "5076": " Sophie",
  "5077": " Joey",
  "5078": " –",
  "5079": " eagerly",
  "5080": " sailing",
  "5081": " Coco",
  "5082": " paused",
  "5083": "ips",
  "5084": " counter",
  "5085": " Good",
  "5086": " Bounce",
  "5087": " Penny",
  "5088": " worth",
  "5089": "looking",
  "5090": " Rock",
  "5091": " oxygen",
  "5092": "Because",
  "5093": " release",
  "5094": " shined",
  "5095": "Not",
  "5096": "pted",
  "5097": " reaches",
  "5098": " balan",
  "5099": " Zara",
  "5100": "isses",
  "5101": " oh",
  "5102": " kisses",
  "5103": " style",
  "5104": " bricks",
  "5105": " plays",
  "5106": " glo",
  "5107": " Tuesday",
  "5108": " ideas",
  "5109": "sed",
  "5110": " inst",
  "5111": " wob",
  "5112": " fireworks",
  "5113": "Bella",
  "5114": "iggly",
  "5115": "ucked",
  "5116": " seeing",
  "5117": " flap",
  "5118": "ops",
  "5119": " accepted",
  "5120": "right",
  "5121": " Pip",
  "5122": "Today",
  "5123": " blink",
  "5124": "mm",
  "5125": " Ros",
  "5126": " tremb",
  "5127": "These",
  "5128": " muddy",
  "5129": " memory",
  "5130": " married",
  "5131": " tomatoes",
  "5132": " exit",
  "5133": " Annie",
  "5134": " wagging",
  "5135": " fash",
  "5136": "Remy",
  "5137": " Charlie",
  "5138": " wandered",
  "5139": "unately",
  "5140": "ipping",
  "5141": " gloves",
  "5142": " captain",
  "5143": " pillows",
  "5144": " receive",
  "5145": " resp",
  "5146": " Pinky",
  "5147": "raged",
  "5148": " during",
  "5149": " Everything",
  "5150": "etch",
  "5151": " web",
  "5152": " petals",
  "5153": " watered",
  "5154": " Eventually",
  "5155": " si",
  "5156": "ived",
  "5157": " manage",
  "5158": " pinched",
  "5159": " brings",
  "5160": " vanish",
  "5161": " cakes",
  "5162": " fashion",
  "5163": " Bluey",
  "5164": " printer",
  "5165": " destroyed",
  "5166": " treasures",
  "5167": "nce",
  "5168": " allow",
  "5169": "ups",
  "5170": " hadn",
  "5171": " worse",
  "5172": " Fifi",
  "5173": "Surpr",
  "5174": " vel",
  "5175": " hits",
  "5176": " bur",
  "5177": "xu",
  "5178": " velvet",
  "5179": " appear",
  "5180": " disagree",
  "5181": "do",
  "5182": " catching",
  "5183": " scattered",
  "5184": " Ro",
  "5185": " memories",
  "5186": " sorts",
  "5187": " Papa",
  "5188": " hers",
  "5189": " scolded",
  "5190": " signs",
  "5191": " pears",
  "5192": " oranges",
  "5193": " bones",
  "5194": " rang",
  "5195": " snapped",
  "5196": " sits",
  "5197": " seats",
  "5198": "uxu",
  "5199": " gazed",
  "5200": " raised",
  "5201": "Bl",
  "5202": " Maria",
  "5203": " zipped",
  "5204": " pies",
  "5205": " prints",
  "5206": " shot",
  "5207": " sliding",
  "5208": " God",
  "5209": " fro",
  "5210": " easier",
  "5211": "ssible",
  "5212": " skills",
  "5213": " climbs",
  "5214": " twirled",
  "5215": "ccer",
  "5216": " blankets",
  "5217": " forgotten",
  "5218": " baked",
  "5219": "ester",
  "5220": "Yum",
  "5221": "esterday",
  "5222": " difference",
  "5223": "orted",
  "5224": " luxu",
  "5225": " golden",
  "5226": "ising",
  "5227": " kitty",
  "5228": " Tw",
  "5229": " cutting",
  "5230": " season",
  "5231": "aggie",
  "5232": " nowhere",
  "5233": " crow",
  "5234": "ah",
  "5235": " soccer",
  "5236": " dared",
  "5237": " bites",
  "5238": " Henry",
  "5239": " Harry",
  "5240": "anny",
  "5241": " lung",
  "5242": " celebrated",
  "5243": "choo",
  "5244": "chie",
  "5245": " straight",
  "5246": " unlocked",
  "5247": "sters",
  "5248": " sorting",
  "5249": " collected",
  "5250": " bleed",
  "5251": "aped",
  "5252": "ding",
  "5253": " welcomed",
  "5254": " visited",
  "5255": " spoons",
  "5256": " ours",
  "5257": " stitch",
  "5258": " jogging",
  "5259": "Surprise",
  "5260": "medi",
  "5261": " emer",
  "5262": " Spark",
  "5263": "mediately",
  "5264": " isn",
  "5265": " tong",
  "5266": " trave",
  "5267": " winner",
  "5268": "umble",
  "5269": " since",
  "5270": " ruin",
  "5271": " prett",
  "5272": "Ok",
  "5273": "Moral",
  "5274": " Tony",
  "5275": " attached",
  "5276": " weeping",
  "5277": " marching",
  "5278": " luxury",
  "5279": " simple",
  "5280": " Each",
  "5281": " shouldn",
  "5282": " guessed",
  "5283": " zero",
  "5284": " created",
  "5285": " stuffed",
  "5286": " pets",
  "5287": "ction",
  "5288": " waist",
  "5289": " famil",
  "5290": " urged",
  "5291": " bowed",
  "5292": " selling",
  "5293": " floating",
  "5294": "rr",
  "5295": " Smith",
  "5296": " bye",
  "5297": " King",
  "5298": " vict",
  "5299": " kingdom",
  "5300": " olives",
  "5301": " kicking",
  "5302": " Wiggly",
  "5303": " punished",
  "5304": " Liz",
  "5305": " Baby",
  "5306": "sit",
  "5307": " toes",
  "5308": " grant",
  "5309": " muscles",
  "5310": " jewels",
  "5311": " Rosie",
  "5312": " beds",
  "5313": " melted",
  "5314": "Goodbye",
  "5315": " slice",
  "5316": " grin",
  "5317": " understanding",
  "5318": " collection",
  "5319": " tore",
  "5320": " measured",
  "5321": "aker",
  "5322": " cras",
  "5323": "omeday",
  "5324": "iers",
  "5325": " trapped",
  "5326": " lined",
  "5327": "'ve",
  "5328": " acted",
  "5329": "fortunately",
  "5330": " encouraged",
  "5331": "va",
  "5332": " Sandy",
  "5333": " received",
  "5334": " waffles",
  "5335": " Before",
  "5336": " Wally",
  "5337": " west",
  "5338": " meow",
  "5339": "ents",
  "5340": " patterns",
  "5341": "rin",
  "5342": "ino",
  "5343": " brus",
  "5344": "eath",
  "5345": " mouths",
  "5346": "kins",
  "5347": " bang",
  "5348": "ring",
  "5349": " Kate",
  "5350": "Meow",
  "5351": " peaches",
  "5352": " breeze",
  "5353": "aded",
  "5354": "une",
  "5355": " printed",
  "5356": " soldiers",
  "5357": " someday",
  "5358": " potatoes",
  "5359": " pupil",
  "5360": "umes",
  "5361": " Millie",
  "5362": " drinks",
  "5363": " shed",
  "5364": " experience",
  "5365": " Tuna",
  "5366": " presents",
  "5367": " firef",
  "5368": " Ruby",
  "5369": " surround",
  "5370": " none",
  "5371": "osed",
  "5372": " voices",
  "5373": "eep",
  "5374": " drinking",
  "5375": " Uncle",
  "5376": "ishing",
  "5377": " relaxed",
  "5378": " victory",
  "5379": "cus",
  "5380": " paints",
  "5381": " breaking",
  "5382": "eve",
  "5383": " hurried",
  "5384": "ission",
  "5385": " twink",
  "5386": " tongue",
  "5387": " costumes",
  "5388": " flat",
  "5389": " mentioned",
  "5390": " begged",
  "5391": " teasing",
  "5392": " whistling",
  "5393": " fetch",
  "5394": " permission",
  "5395": " sip",
  "5396": " disagreed",
  "5397": " pearl",
  "5398": "akes",
  "5399": " stro",
  "5400": "vest",
  "5401": " These",
  "5402": " esc",
  "5403": " appro",
  "5404": " skipping",
  "5405": " fishing",
  "5406": " May",
  "5407": "Leo",
  "5408": " highest",
  "5409": " pra",
  "5410": " watches",
  "5411": " sorted",
  "5412": " ringing",
  "5413": "ship",
  "5414": " tonight",
  "5415": " Bo",
  "5416": " opin",
  "5417": " lets",
  "5418": "icing",
  "5419": " Qu",
  "5420": " perfectly",
  "5421": " shadows",
  "5422": " immediately",
  "5423": " herbs",
  "5424": " warmth",
  "5425": " spit",
  "5426": " remained",
  "5427": "ther",
  "5428": " Its",
  "5429": "walk",
  "5430": "Bobby",
  "5431": "irring",
  "5432": "Jen",
  "5433": " sneak",
  "5434": " six",
  "5435": " lips",
  "5436": " kneeled",
  "5437": "Blue",
  "5438": " contest",
  "5439": " Che",
  "5440": "utter",
  "5441": " cartoons",
  "5442": " sidewalk",
  "5443": " colours",
  "5444": " stamps",
  "5445": " ago",
  "5446": "Ha",
  "5447": " Toto",
  "5448": " Boo",
  "5449": " Follow",
  "5450": " east",
  "5451": " headed",
  "5452": "oved",
  "5453": "\",",
  "5454": " strang",
  "5455": " ladyb",
  "5456": " fed",
  "5457": " supposed",
  "5458": " roots",
  "5459": " lick",
  "5460": " crunch",
  "5461": " mixing",
  "5462": " works",
  "5463": " decorations",
  "5464": " melting",
  "5465": " known",
  "5466": " emergen",
  "5467": "Mandy",
  "5468": " rested",
  "5469": " Ab",
  "5470": " lines",
  "5471": " Suzy",
  "5472": " lily",
  "5473": " Jul",
  "5474": " instr",
  "5475": " laid",
  "5476": " Gr",
  "5477": " succeeded",
  "5478": " cones",
  "5479": " wiggle",
  "5480": "ety",
  "5481": "sing",
  "5482": " shock",
  "5483": " setting",
  "5484": " Slow",
  "5485": " studied",
  "5486": " strangers",
  "5487": " Rocky",
  "5488": "Really",
  "5489": " twigs",
  "5490": " brid",
  "5491": " theirs",
  "5492": " Dr",
  "5493": " girls",
  "5494": "boo",
  "5495": "!\",",
  "5496": " screams",
  "5497": " lands",
  "5498": " ordered",
  "5499": " stirring",
  "5500": " moments",
  "5501": " fields",
  "5502": " alright",
  "5503": " stealing",
  "5504": "ded",
  "5505": "Andy",
  "5506": " rul",
  "5507": " bravely",
  "5508": "avid",
  "5509": " Both",
  "5510": " mister",
  "5511": "!'",
  "5512": " invest",
  "5513": " scratched",
  "5514": " playtime",
  "5515": " ripped",
  "5516": " investig",
  "5517": " tucked",
  "5518": " resting",
  "5519": " burning",
  "5520": "ishes",
  "5521": " Clara",
  "5522": " Chicky",
  "5523": " bridges",
  "5524": " officer",
  "5525": "please",
  "5526": "Sammy",
  "5527": "Bird",
  "5528": "abies",
  "5529": " settled",
  "5530": " matched",
  "5531": " achie",
  "5532": " tex",
  "5533": " texture",
  "5534": "Happy",
  "5535": " waits",
  "5536": " turning",
  "5537": " Sky",
  "5538": "Peter",
  "5539": "ored",
  "5540": " trembling",
  "5541": "isten",
  "5542": " nails",
  "5543": "atie",
  "5544": " muffins",
  "5545": " Someone",
  "5546": "ids",
  "5547": " escaped",
  "5548": " James",
  "5549": " piles",
  "5550": " investigate",
  "5551": "osity",
  "5552": " broom",
  "5553": " ladybug",
  "5554": " sore",
  "5555": " Pepper",
  "5556": " appreciate",
  "5557": " admir",
  "5558": " threat",
  "5559": " babies",
  "5560": " silence",
  "5561": " sisters",
  "5562": " emergency",
  "5563": " area",
  "5564": "ides",
  "5565": " dads",
  "5566": " answers",
  "5567": " pupp",
  "5568": " keys",
  "5569": " chewing",
  "5570": " slapped",
  "5571": " wiz",
  "5572": " importance",
  "5573": "Boo",
  "5574": " served",
  "5575": " Hop",
  "5576": " safety",
  "5577": "izing",
  "5578": "Bu",
  "5579": "Would",
  "5580": " sparkle",
  "5581": " touching",
  "5582": " Later",
  "5583": " soared",
  "5584": "igail",
  "5585": " sings",
  "5586": " hen",
  "5587": "allen",
  "5588": "Ella",
  "5589": "bers",
  "5590": "antly",
  "5591": "Momo",
  "5592": " Dino",
  "5593": " keeps",
  "5594": " amazement",
  "5595": " challen",
  "5596": " twin",
  "5597": " hesit",
  "5598": " revealed",
  "5599": "anna",
  "5600": "achel",
  "5601": " item",
  "5602": " dire",
  "5603": " soaked",
  "5604": "zing",
  "5605": " writ",
  "5606": " foods",
  "5607": " rides",
  "5608": " dinosaurs",
  "5609": " recorded",
  "5610": " tickle",
  "5611": " inch",
  "5612": " Zigzag",
  "5613": " Me",
  "5614": " wizard",
  "5615": " vet",
  "5616": " trips",
  "5617": " glowed",
  "5618": " An",
  "5619": " Frog",
  "5620": "Mmm",
  "5621": " hi",
  "5622": " beamed",
  "5623": " quack",
  "5624": " curled",
  "5625": " hated",
  "5626": " wink",
  "5627": " shopping",
  "5628": " eats",
  "5629": "Eventually",
  "5630": " Bug",
  "5631": " praised",
  "5632": " wooden",
  "5633": " bringing",
  "5634": " mittens",
  "5635": " studying",
  "5636": " guy",
  "5637": " brushes",
  "5638": " spaceship",
  "5639": " gust",
  "5640": " crawling",
  "5641": " Something",
  "5642": "Cat",
  "5643": " ruler",
  "5644": " flav",
  "5645": " downstairs",
  "5646": " shooting",
  "5647": " tastes",
  "5648": " napping",
  "5649": " sprinkles",
  "5650": " marks",
  "5651": " cuddled",
  "5652": " dot",
  "5653": "hello",
  "5654": "plash",
  "5655": " fut",
  "5656": "ales",
  "5657": "aved",
  "5658": " future",
  "5659": " monsters",
  "5660": " collecting",
  "5661": " measuring",
  "5662": " Happy",
  "5663": "'.",
  "5664": " families",
  "5665": " Out",
  "5666": " First",
  "5667": " Mo",
  "5668": " thrill",
  "5669": " oat",
  "5670": "irts",
  "5671": " result",
  "5672": "Jake",
  "5673": " approached",
  "5674": " Rabbit",
  "5675": " crunchy",
  "5676": "act",
  "5677": "Un",
  "5678": " remem",
  "5679": " bleeding",
  "5680": " remembers",
  "5681": " nicer",
  "5682": " beat",
  "5683": " sneaky",
  "5684": " disturbed",
  "5685": " leader",
  "5686": " scaring",
  "5687": "Or",
  "5688": "hind",
  "5689": " peel",
  "5690": " Hope",
  "5691": " firemen",
  "5692": " neighborhood",
  "5693": " Star",
  "5694": " grey",
  "5695": " Not",
  "5696": " motion",
  "5697": " noon",
  "5698": " possible",
  "5699": "Emily",
  "5700": "Somet",
  "5701": " apologized",
  "5702": " weighed",
  "5703": "ues",
  "5704": " Did",
  "5705": " tickets",
  "5706": "Cl",
  "5707": " naps",
  "5708": " loose",
  "5709": " pride",
  "5710": " youth",
  "5711": " swims",
  "5712": "ped",
  "5713": " strings",
  "5714": " recognized",
  "5715": " siren",
  "5716": " poking",
  "5717": "fied",
  "5718": " Ho",
  "5719": "cious",
  "5720": "ha",
  "5721": "elvet",
  "5722": " tricked",
  "5723": " wonders",
  "5724": " gained",
  "5725": " wanting",
  "5726": " crashed",
  "5727": " obe",
  "5728": " seesaw",
  "5729": " worker",
  "5730": "unnies",
  "5731": "ls",
  "5732": "oming",
  "5733": " draws",
  "5734": " scooped",
  "5735": ".'",
  "5736": " zooming",
  "5737": " opinion",
  "5738": " yelling",
  "5739": " prepared",
  "5740": " grinned",
  "5741": " Slowly",
  "5742": " awe",
  "5743": " poems",
  "5744": " doggy",
  "5745": " acting",
  "5746": " Beep",
  "5747": " happiest",
  "5748": " chef",
  "5749": " sneaked",
  "5750": " respons",
  "5751": " eff",
  "5752": " Always",
  "5753": " Lizzy",
  "5754": " owned",
  "5755": " bunnies",
  "5756": " anytime",
  "5757": " struck",
  "5758": " pedals",
  "5759": "oys",
  "5760": " knelt",
  "5761": "ena",
  "5762": "Ollie",
  "5763": " secrets",
  "5764": " pause",
  "5765": " decorated",
  "5766": " horns",
  "5767": " agreement",
  "5768": " Squ",
  "5769": "ided",
  "5770": " frost",
  "5771": " tallest",
  "5772": " obey",
  "5773": "Remember",
  "5774": "riends",
  "5775": "ogo",
  "5776": " Stop",
  "5777": "Have",
  "5778": " decides",
  "5779": " Once",
  "5780": " behaved",
  "5781": " tugged",
  "5782": " sides",
  "5783": " woof",
  "5784": " slim",
  "5785": "zen",
  "5786": " goodnight",
  "5787": " keeper",
  "5788": " sparkling",
  "5789": " chirped",
  "5790": " precious",
  "5791": "mother",
  "5792": "lier",
  "5793": "ien",
  "5794": "Tr",
  "5795": " repeated",
  "5796": " claps",
  "5797": "indy",
  "5798": "affes",
  "5799": " snowballs",
  "5800": " contain",
  "5801": "ud",
  "5802": "rs",
  "5803": " Ray",
  "5804": " ourselves",
  "5805": "allow",
  "5806": " giraffes",
  "5807": " balancing",
  "5808": " kindly",
  "5809": " spending",
  "5810": " writes",
  "5811": "ays",
  "5812": "ppers",
  "5813": " Like",
  "5814": "omas",
  "5815": " prop",
  "5816": " hissed",
  "5817": "First",
  "5818": " frozen",
  "5819": " frosting",
  "5820": " effort",
  "5821": " buzzing",
  "5822": " struggled",
  "5823": "oh",
  "5824": " Steve",
  "5825": " admiring",
  "5826": " rele",
  "5827": "iggy",
  "5828": " sweeties",
  "5829": " Velvet",
  "5830": " slimy",
  "5831": " brushed",
  "5832": " bloomed",
  "5833": "Susie",
  "5834": " Am",
  "5835": " polished",
  "5836": " Zoe",
  "5837": "arth",
  "5838": "anted",
  "5839": " comfy",
  "5840": " boo",
  "5841": " staying",
  "5842": " rubbing",
  "5843": "Ducky",
  "5844": " rocking",
  "5845": " pockets",
  "5846": " thrilled",
  "5847": " beside",
  "5848": " comple",
  "5849": " Aunt",
  "5850": " Maggie",
  "5851": "Ah",
  "5852": " eight",
  "5853": "urry",
  "5854": "isdom",
  "5855": " machines",
  "5856": " earlier",
  "5857": " yesterday",
  "5858": " seems",
  "5859": " rust",
  "5860": " Keep",
  "5861": "Sp",
  "5862": " traveled",
  "5863": " folding",
  "5864": " boom",
  "5865": " cracked",
  "5866": "ities",
  "5867": " hugging",
  "5868": " radishes",
  "5869": " Stitch",
  "5870": " opening",
  "5871": " loving",
  "5872": " circus",
  "5873": " surrounded",
  "5874": " curiosity",
  "5875": " Rachel",
  "5876": " spraying",
  "5877": " demanded",
  "5878": " paintings",
  "5879": "amie",
  "5880": " Green",
  "5881": " removed",
  "5882": " gaze",
  "5883": " honk",
  "5884": " pebbles",
  "5885": " zookeeper",
  "5886": " hardly",
  "5887": " catches",
  "5888": "edding",
  "5889": " sting",
  "5890": " stripes",
  "5891": " powers",
  "5892": " loaded",
  "5893": " Pippa",
  "5894": "Sometimes",
  "5895": " splashes",
  "5896": " pots",
  "5897": " petted",
  "5898": " matching",
  "5899": " David",
  "5900": "Thanks",
  "5901": " toss",
  "5902": " stare",
  "5903": " belly",
  "5904": "Yummy",
  "5905": "ibb",
  "5906": " whatever",
  "5907": " apologize",
  "5908": " rocked",
  "5909": " comforted",
  "5910": " Bree",
  "5911": " decision",
  "5912": " ribbons",
  "5913": " Joy",
  "5914": " Birdie",
  "5915": "ern",
  "5916": " struggling",
  "5917": " expected",
  "5918": " deser",
  "5919": " steep",
  "5920": "wh",
  "5921": " protected",
  "5922": " neighbors",
  "5923": " smiley",
  "5924": " chases",
  "5925": "During",
  "5926": " granted",
  "5927": " crumb",
  "5928": " Mat",
  "5929": " purred",
  "5930": " diving",
  "5931": " sadness",
  "5932": "Whiskers",
  "5933": " organizing",
  "5934": "lowers",
  "5935": " eagle",
  "5936": " heroes",
  "5937": " dipped",
  "5938": " sunlight",
  "5939": " lied",
  "5940": " pastels",
  "5941": " Frank",
  "5942": "Ex",
  "5943": " safer",
  "5944": " roads",
  "5945": " scru",
  "5946": " argued",
  "5947": " Milly",
  "5948": " goals",
  "5949": " Water",
  "5950": " discovery",
  "5951": " Abigail",
  "5952": " villag",
  "5953": " peered",
  "5954": "Ro",
  "5955": " Bouncy",
  "5956": "use",
  "5957": "ana",
  "5958": "loe",
  "5959": " tim",
  "5960": " dragons",
  "5961": " buildings",
  "5962": " buckets",
  "5963": " parties",
  "5964": " beard",
  "5965": " wedding",
  "5966": "Rex",
  "5967": " flutter",
  "5968": " planets",
  "5969": " ann",
  "5970": " Robby",
  "5971": " polishing",
  "5972": " fasc",
  "5973": "ira",
  "5974": " released",
  "5975": " Chr",
  "5976": " crabs",
  "5977": " Gogo",
  "5978": " tails",
  "5979": " Watch",
  "5980": " sausages",
  "5981": " Ju",
  "5982": " argu",
  "5983": " contro",
  "5984": " bottles",
  "5985": " wiggled",
  "5986": " teased",
  "5987": "uke",
  "5988": " arguing",
  "5989": " sled",
  "5990": " dragged",
  "5991": " padd",
  "5992": " Car",
  "5993": " roaring",
  "5994": " clearing",
  "5995": " shirts",
  "5996": " movies",
  "5997": " gathering",
  "5998": " airpl",
  "5999": " wid",
  "6000": "joyed",
  "6001": " teaches",
  "6002": " spiders",
  "6003": " limes",
  "6004": " Remember",
  "6005": " Dare",
  "6006": " overjoyed",
  "6007": " actually",
  "6008": " sighs",
  "6009": " continue",
  "6010": " cuddle",
  "6011": " soaring",
  "6012": " smallest",
  "6013": " Jess",
  "6014": " drives",
  "6015": " sparkles",
  "6016": " rip",
  "6017": " situ",
  "6018": " cubes",
  "6019": " refres",
  "6020": " talent",
  "6021": " challenge",
  "6022": " Olly",
  "6023": " grandmother",
  "6024": " Splash",
  "6025": " pouring",
  "6026": "umm",
  "6027": " pretends",
  "6028": " fascin",
  "6029": " cuts",
  "6030": " quarreling",
  "6031": " peppers",
  "6032": " bank",
  "6033": " shivered",
  "6034": " mane",
  "6035": " dusty",
  "6036": "ley",
  "6037": " wondering",
  "6038": " villagers",
  "6039": " stretching",
  "6040": "njoy",
  "6041": "ib",
  "6042": " weeks",
  "6043": " wherever",
  "6044": " darker",
  "6045": "jam",
  "6046": "Tiny",
  "6047": "sses",
  "6048": " X",
  "6049": " rings",
  "6050": " onwards",
  "6051": " Katie",
  "6052": " united",
  "6053": "Achoo",
  "6054": " bead",
  "6055": " Everyday",
  "6056": " Being",
  "6057": " prettiest",
  "6058": "Johnny",
  "6059": " caut",
  "6060": " realize",
  "6061": " company",
  "6062": " penguins",
  "6063": "annah",
  "6064": "Luna",
  "6065": "Fr",
  "6066": " Spring",
  "6067": " bedtime",
  "6068": " completed",
  "6069": " Wisdom",
  "6070": " Leave",
  "6071": "”.",
  "6072": " knights",
  "6073": " flags",
  "6074": " Je",
  "6075": " Because",
  "6076": " playroom",
  "6077": " Prin",
  "6078": " actions",
  "6079": " Zero",
  "6080": " learns",
  "6081": " gotten",
  "6082": " patience",
  "6083": "inda",
  "6084": "dam",
  "6085": " shrug",
  "6086": " kites",
  "6087": " responsible",
  "6088": " fears",
  "6089": " destination",
  "6090": " wires",
  "6091": " reply",
  "6092": " wrist",
  "6093": " dam",
  "6094": "aws",
  "6095": " packing",
  "6096": " mountains",
  "6097": " fault",
  "6098": " applauded",
  "6099": " scrubbed",
  "6100": " ma",
  "6101": " crept",
  "6102": " Ava",
  "6103": "Uh",
  "6104": " Earth",
  "6105": " satis",
  "6106": " third",
  "6107": " phot",
  "6108": " pencils",
  "6109": " wins",
  "6110": " sticking",
  "6111": " baker",
  "6112": " visiting",
  "6113": " wound",
  "6114": " uses",
  "6115": " peas",
  "6116": " reminder",
  "6117": " control",
  "6118": "ashed",
  "6119": "Grandpa",
  "6120": " joking",
  "6121": " awake",
  "6122": " instruct",
  "6123": " staring",
  "6124": " healed",
  "6125": " Put",
  "6126": " hitting",
  "6127": " Fish",
  "6128": " screaming",
  "6129": " begin",
  "6130": "Rob",
  "6131": "uckily",
  "6132": " Friends",
  "6133": " Moo",
  "6134": "icorn",
  "6135": " helmets",
  "6136": "enty",
  "6137": " unicorn",
  "6138": "ler",
  "6139": "seek",
  "6140": " towels",
  "6141": "Silly",
  "6142": " Lou",
  "6143": " chips",
  "6144": "ica",
  "6145": " creation",
  "6146": " wasted",
  "6147": "bie",
  "6148": "Mar",
  "6149": " Behind",
  "6150": "laire",
  "6151": " masks",
  "6152": " items",
  "6153": " forgi",
  "6154": " firefight",
  "6155": " outdo",
  "6156": " lollipops",
  "6157": "Watch",
  "6158": " heav",
  "6159": " guns",
  "6160": " died",
  "6161": " Hippy",
  "6162": " seas",
  "6163": " glitter",
  "6164": "uddles",
  "6165": " arrive",
  "6166": " weren",
  "6167": " stole",
  "6168": " scales",
  "6169": " perched",
  "6170": " accom",
  "6171": " logs",
  "6172": " achieve",
  "6173": "die",
  "6174": " practicing",
  "6175": "ining",
  "6176": " whose",
  "6177": "Stay",
  "6178": " pumpkins",
  "6179": " instructions",
  "6180": " swoop",
  "6181": " batteries",
  "6182": " candies",
  "6183": " agrees",
  "6184": " project",
  "6185": " snakes",
  "6186": " chirping",
  "6187": "Benny",
  "6188": " shelves",
  "6189": " protecting",
  "6190": " parked",
  "6191": " exact",
  "6192": " Cra",
  "6193": " patiently",
  "6194": " activ",
  "6195": " videos",
  "6196": " shoulders",
  "6197": " blows",
  "6198": "hee",
  "6199": "Fo",
  "6200": " promises",
  "6201": "go",
  "6202": " dent",
  "6203": "usan",
  "6204": "uest",
  "6205": "ners",
  "6206": "jamas",
  "6207": " examined",
  "6208": " airplane",
  "6209": "Doggy",
  "6210": " roses",
  "6211": " accompl",
  "6212": " tasks",
  "6213": "Dave",
  "6214": " Hoot",
  "6215": "Poppy",
  "6216": " Bop",
  "6217": "Bunny",
  "6218": " beads",
  "6219": " bowls",
  "6220": " crumbs",
  "6221": "zes",
  "6222": " listens",
  "6223": " Love",
  "6224": " Catty",
  "6225": " Brownie",
  "6226": "Pete",
  "6227": " Ol",
  "6228": " dolphins",
  "6229": " cough",
  "6230": " bunch",
  "6231": " guest",
  "6232": "cakes",
  "6233": " requested",
  "6234": " remote",
  "6235": " improved",
  "6236": "anta",
  "6237": " reaching",
  "6238": " brand",
  "6239": " Jan",
  "6240": "ayla",
  "6241": " alien",
  "6242": " Bye",
  "6243": "irm",
  "6244": " copy",
  "6245": " Sun",
  "6246": " cheering",
  "6247": " photos",
  "6248": " Julie",
  "6249": " Chew",
  "6250": "Bad",
  "6251": " Blink",
  "6252": "Time",
  "6253": " cans",
  "6254": " Cuddles",
  "6255": " timer",
  "6256": " By",
  "6257": " replaced",
  "6258": "athy",
  "6259": " workers",
  "6260": " stern",
  "6261": " Enjoy",
  "6262": "aster",
  "6263": " neither",
  "6264": "Mike",
  "6265": " passing",
  "6266": " misses",
  "6267": " curtains",
  "6268": " confl",
  "6269": "Chirpy",
  "6270": " rainbows",
  "6271": " rubs",
  "6272": "George",
  "6273": "uctantly",
  "6274": " rolls",
  "6275": " patted",
  "6276": "ilo",
  "6277": " pajamas",
  "6278": " outdoors",
  "6279": "esome",
  "6280": "dies",
  "6281": " complaining",
  "6282": " Squirrel",
  "6283": "Lola",
  "6284": "Run",
  "6285": " puppet",
  "6286": " Princess",
  "6287": " closes",
  "6288": " beneath",
  "6289": " lap",
  "6290": " drums",
  "6291": " tune",
  "6292": " Beth",
  "6293": " Mouse",
  "6294": " filling",
  "6295": "Miss",
  "6296": "angled",
  "6297": " refuse",
  "6298": " Sorry",
  "6299": " sweat",
  "6300": " faced",
  "6301": "...",
  "6302": " seven",
  "6303": " balanced",
  "6304": " rescued",
  "6305": "neath",
  "6306": "bl",
  "6307": " quacked",
  "6308": " Abby",
  "6309": "Paul",
  "6310": "istle",
  "6311": " awesome",
  "6312": " 1",
  "6313": " mission",
  "6314": " However",
  "6315": " guys",
  "6316": " conflict",
  "6317": " cautious",
  "6318": " vent",
  "6319": " observed",
  "6320": " cause",
  "6321": " introduc",
  "6322": " Thomas",
  "6323": " pastries",
  "6324": "nie",
  "6325": " Our",
  "6326": " exactly",
  "6327": " doctors",
  "6328": " rule",
  "6329": " becoming",
  "6330": " policeman",
  "6331": " mes",
  "6332": "uly",
  "6333": " rockets",
  "6334": "you",
  "6335": " Yes",
  "6336": " Dot",
  "6337": " fairies",
  "6338": "lay",
  "6339": " pout",
  "6340": "An",
  "6341": " insist",
  "6342": " blooming",
  "6343": " tractor",
  "6344": " farther",
  "6345": " Sad",
  "6346": "avi",
  "6347": "Oops",
  "6348": "Great",
  "6349": " remembering",
  "6350": " included",
  "6351": " curly",
  "6352": "Zoom",
  "6353": "Fine",
  "6354": " teamwork",
  "6355": "zie",
  "6356": " fascinated",
  "6357": " wobbled",
  "6358": " slam",
  "6359": " truly",
  "6360": " helpers",
  "6361": " sights",
  "6362": " paddle",
  "6363": " stumble",
  "6364": " firm",
  "6365": "Henry",
  "6366": " Jilly",
  "6367": "acob",
  "6368": " caused",
  "6369": " prayer",
  "6370": " spong",
  "6371": " recording",
  "6372": "kelly",
  "6373": "ais",
  "6374": " traded",
  "6375": " starfish",
  "6376": " supplies",
  "6377": " thro",
  "6378": " pointy",
  "6379": " situation",
  "6380": " inviting",
  "6381": "eah",
  "6382": "gers",
  "6383": " neighbourhood",
  "6384": " everyday",
  "6385": " ornaments",
  "6386": " Ally",
  "6387": "inkle",
  "6388": " valued",
  "6389": " adding",
  "6390": "Some",
  "6391": " reluctantly",
  "6392": " dots",
  "6393": " stays",
  "6394": " tables",
  "6395": " prettier",
  "6396": " bare",
  "6397": " desert",
  "6398": " snowmen",
  "6399": " steady",
  "6400": " minerals",
  "6401": "araway",
  "6402": " thorn",
  "6403": "ody",
  "6404": " ast",
  "6405": " glasses",
  "6406": " faraway",
  "6407": " Get",
  "6408": " Foxy",
  "6409": " swooped",
  "6410": " Welcome",
  "6411": " Two",
  "6412": " Sure",
  "6413": "  \n",
  "6414": " unf",
  "6415": " forks",
  "6416": " usually",
  "6417": " usual",
  "6418": "Polly",
  "6419": " dar",
  "6420": " Jamie",
  "6421": " winked",
  "6422": " sneezing",
  "6423": " solut",
  "6424": " loading",
  "6425": " sponge",
  "6426": " Quick",
  "6427": " insects",
  "6428": " pans",
  "6429": "Dog",
  "6430": " sobbed",
  "6431": " Santa",
  "6432": "James",
  "6433": " growling",
  "6434": "sm",
  "6435": "arter",
  "6436": " throat",
  "6437": " Chloe",
  "6438": " noses",
  "6439": " Josh",
  "6440": " Dizzy",
  "6441": " scarves",
  "6442": " confident",
  "6443": " yourselves",
  "6444": " Want",
  "6445": "agull",
  "6446": " homework",
  "6447": " superheroes",
  "6448": " Stay",
  "6449": "Joey",
  "6450": " smarter",
  "6451": " windy",
  "6452": " librarian",
  "6453": "Tina",
  "6454": " Kids",
  "6455": " gems",
  "6456": "Days",
  "6457": "ora",
  "6458": " underneath",
  "6459": " kicks",
  "6460": " knowled",
  "6461": " itchy",
  "6462": " knowledge",
  "6463": " jackets",
  "6464": " Skelly",
  "6465": " For",
  "6466": " surface",
  "6467": " untie",
  "6468": " comm",
  "6469": " Duck",
  "6470": " princesses",
  "6471": "...\"",
  "6472": "Those",
  "6473": "ido",
  "6474": "eed",
  "6475": "Hold",
  "6476": "Yeah",
  "6477": "coon",
  "6478": " squares",
  "6479": " Henny",
  "6480": " warnings",
  "6481": " giggling",
  "6482": "iar",
  "6483": " reads",
  "6484": "vin",
  "6485": "Our",
  "6486": " choo",
  "6487": "son",
  "6488": " younger",
  "6489": " clowns",
  "6490": " Mix",
  "6491": "Toby",
  "6492": " ropes",
  "6493": " biting",
  "6494": " crowd",
  "6495": " Unfortunately",
  "6496": "pite",
  "6497": "Danny",
  "6498": "True",
  "6499": " seagull",
  "6500": " paddled",
  "6501": " wears",
  "6502": " delivered",
  "6503": " Mon",
  "6504": " twirl",
  "6505": " onions",
  "6506": " buzzed",
  "6507": " complained",
  "6508": " bumpy",
  "6509": " stem",
  "6510": "Ew",
  "6511": " piggy",
  "6512": "Mrs",
  "6513": " Anne",
  "6514": " direction",
  "6515": "ouch",
  "6516": " dived",
  "6517": "Roar",
  "6518": " tangled",
  "6519": " startled",
  "6520": "ults",
  "6521": " leaning",
  "6522": "bbie",
  "6523": " Ant",
  "6524": " Jones",
  "6525": " badge",
  "6526": " Po",
  "6527": "Grace",
  "6528": " unp",
  "6529": " deal",
  "6530": "though",
  "6531": "Annie",
  "6532": " vowed",
  "6533": " napkins",
  "6534": "anes",
  "6535": " tickled",
  "6536": " risk",
  "6537": " covers",
  "6538": " pec",
  "6539": "Shh",
  "6540": " yells",
  "6541": " satisfied",
  "6542": "int",
  "6543": " knocks",
  "6544": " refreshed",
  "6545": "tuce",
  "6546": " Sc",
  "6547": "cuse",
  "6548": " cous",
  "6549": " arrows",
  "6550": "Maggie",
  "6551": " Whistle",
  "6552": "Pe",
  "6553": " wipes",
  "6554": " speaking",
  "6555": " lettuce",
  "6556": " guessing",
  "6557": "Unfortunately",
  "6558": " Quack",
  "6559": " ripe",
  "6560": " Susan",
  "6561": " hides",
  "6562": " choices",
  "6563": " Dodo",
  "6564": " Rover",
  "6565": "Buzz",
  "6566": " signed",
  "6567": " slower",
  "6568": " seeker",
  "6569": " introduced",
  "6570": " singer",
  "6571": " creating",
  "6572": " Matt",
  "6573": " froze",
  "6574": " cent",
  "6575": "uggles",
  "6576": " joked",
  "6577": " squeal",
  "6578": " toaster",
  "6579": " explorers",
  "6580": "fit",
  "6581": " avo",
  "6582": "anging",
  "6583": "Sophie",
  "6584": " praying",
  "6585": " written",
  "6586": " discovering",
  "6587": " provided",
  "6588": " Dara",
  "6589": " refle",
  "6590": " Lion",
  "6591": "Excuse",
  "6592": " mushrooms",
  "6593": " Jeff",
  "6594": " Paws",
  "6595": " paying",
  "6596": " knees",
  "6597": "ences",
  "6598": " hider",
  "6599": " wandering",
  "6600": " Ash",
  "6601": " images",
  "6602": "Charlie",
  "6603": " stung",
  "6604": " Wink",
  "6605": " magnets",
  "6606": " barely",
  "6607": " behaving",
  "6608": " tipto",
  "6609": "?\",",
  "6610": " marked",
  "6611": "brush",
  "6612": "rrr",
  "6613": " restored",
  "6614": " Dee",
  "6615": " leading",
  "6616": "lled",
  "6617": " chuck",
  "6618": "ados",
  "6619": " nine",
  "6620": " greet",
  "6621": "Teddy",
  "6622": " gears",
  "6623": " bravery",
  "6624": " Snuggles",
  "6625": "ky",
  "6626": " competition",
  "6627": "eal",
  "6628": " outfit",
  "6629": "oline",
  "6630": " wishing",
  "6631": " properly",
  "6632": " ventured",
  "6633": "tle",
  "6634": "aa",
  "6635": " muscle",
  "6636": " dances",
  "6637": " chat",
  "6638": " salty",
  "6639": " pens",
  "6640": "amb",
  "6641": " Betsy",
  "6642": " ranger",
  "6643": " Ziggy",
  "6644": " deserve",
  "6645": " however",
  "6646": "sequ",
  "6647": " matters",
  "6648": " darkness",
  "6649": " burst",
  "6650": " Fu",
  "6651": " rainy",
  "6652": " cobwebs",
  "6653": " ruining",
  "6654": " chefs",
  "6655": " consequ",
  "6656": " blocking",
  "6657": " bak",
  "6658": "usted",
  "6659": "itely",
  "6660": "sty",
  "6661": " scur",
  "6662": " vines",
  "6663": " fab",
  "6664": "abel",
  "6665": " fabric",
  "6666": " entire",
  "6667": " basement",
  "6668": " performed",
  "6669": " least",
  "6670": " Buggy",
  "6671": "Sn",
  "6672": " scratches",
  "6673": " heavier",
  "6674": " Claire",
  "6675": " mints",
  "6676": " twirling",
  "6677": " avocados",
  "6678": "However",
  "6679": " Linda",
  "6680": "rink",
  "6681": "fl",
  "6682": " scurried",
  "6683": " losing",
  "6684": " sunflowers",
  "6685": " Jenna",
  "6686": " rainco",
  "6687": " swords",
  "6688": "Tweet",
  "6689": " click",
  "6690": "agic",
  "6691": " Laser",
  "6692": " silent",
  "6693": " jobs",
  "6694": " necklaces",
  "6695": " flames",
  "6696": " Luke",
  "6697": " relief",
  "6698": " Grumpy",
  "6699": " snat",
  "6700": " sewed",
  "6701": " rotting",
  "6702": "len",
  "6703": "Listen",
  "6704": "Follow",
  "6705": " tricky",
  "6706": "Jerry",
  "6707": " lighter",
  "6708": "ophia",
  "6709": " bows",
  "6710": " Skip",
  "6711": " exha",
  "6712": " solution",
  "6713": " consequences",
  "6714": "Alex",
  "6715": " Lena",
  "6716": " tires",
  "6717": " stain",
  "6718": "Beep",
  "6719": " unpacked",
  "6720": "Ab",
  "6721": " partic",
  "6722": "rance",
  "6723": " races",
  "6724": " pins",
  "6725": " bumps",
  "6726": " wraps",
  "6727": "aisies",
  "6728": " wow",
  "6729": " decorating",
  "6730": " backed",
  "6731": "cher",
  "6732": " dentist",
  "6733": " purr",
  "6734": " needles",
  "6735": " cautiously",
  "6736": " lifting",
  "6737": "izzie",
  "6738": " Pr",
  "6739": " accomplish",
  "6740": " triangles",
  "6741": " daisies",
  "6742": "ept",
  "6743": " hesitated",
  "6744": " annoy",
  "6745": " Those",
  "6746": " growls",
  "6747": " crackers",
  "6748": "oke",
  "6749": " stomped",
  "6750": " grabbing",
  "6751": " cott",
  "6752": " figured",
  "6753": " bodies",
  "6754": " mater",
  "6755": " buying",
  "6756": " Tree",
  "6757": " material",
  "6758": " Rolly",
  "6759": " Fido",
  "6760": " Adam",
  "6761": " swans",
  "6762": " ties",
  "6763": " gri",
  "6764": "vers",
  "6765": " grows",
  "6766": " sweets",
  "6767": " Goodbye",
  "6768": " owners",
  "6769": " flavor",
  "6770": " cheeks",
  "6771": " Cathy",
  "6772": "Big",
  "6773": " suffering",
  "6774": " Jessie",
  "6775": " El",
  "6776": "vroom",
  "6777": " fact",
  "6778": " groups",
  "6779": "bly",
  "6780": " forehead",
  "6781": " lungs",
  "6782": "Harry",
  "6783": " repa",
  "6784": " interested",
  "6785": " bakery",
  "6786": " Milo",
  "6787": " freed",
  "6788": "Lilly",
  "6789": "itches",
  "6790": " Nothing",
  "6791": " chuckled",
  "6792": "For",
  "6793": " swept",
  "6794": " conn",
  "6795": "?'",
  "6796": " thud",
  "6797": " exhausted",
  "6798": "Tw",
  "6799": " twinkling",
  "6800": " tapped",
  "6801": "Ru",
  "6802": " nect",
  "6803": "rosty",
  "6804": " nectar",
  "6805": "elle",
  "6806": " feast",
  "6807": " darling",
  "6808": "indr",
  "6809": " Mad",
  "6810": " worries",
  "6811": " uns",
  "6812": " tunnels",
  "6813": " fuzzy",
  "6814": " repaired",
  "6815": " reason",
  "6816": " Trust",
  "6817": " Copper",
  "6818": " Ball",
  "6819": " activities",
  "6820": "lets",
  "6821": " pecked",
  "6822": " Hannah",
  "6823": " entrance",
  "6824": " Try",
  "6825": " raindr",
  "6826": " meals",
  "6827": " Listen",
  "6828": " particular",
  "6829": " completely",
  "6830": " mailed",
  "6831": "ctions",
  "6832": " nests",
  "6833": " waiter",
  "6834": " cuddly",
  "6835": " sense",
  "6836": " Nana",
  "6837": " colored",
  "6838": "arky",
  "6839": " leap",
  "6840": "step",
  "6841": "band",
  "6842": " plenty",
  "6843": " peeking",
  "6844": " slammed",
  "6845": " Cara",
  "6846": "no",
  "6847": " players",
  "6848": " month",
  "6849": " budge",
  "6850": " Birthday",
  "6851": " Q",
  "6852": " scra",
  "6853": " forgets",
  "6854": " den",
  "6855": " handful",
  "6856": " Oliver",
  "6857": " mer",
  "6858": "ossible",
  "6859": " genie",
  "6860": " Christ",
  "6861": " stool",
  "6862": "iggie",
  "6863": " talks",
  "6864": " Pup",
  "6865": " Suzie",
  "6866": " passports",
  "6867": " feeding",
  "6868": " films",
  "6869": " baths",
  "6870": " impossible",
  "6871": " determination",
  "6872": "May",
  "6873": " printing",
  "6874": "boat",
  "6875": " designed",
  "6876": " buses",
  "6877": " opp",
  "6878": "ueen",
  "6879": "lephant",
  "6880": " suitcase",
  "6881": " bars",
  "6882": " counts",
  "6883": " stolen",
  "6884": " spreading",
  "6885": " spikes",
  "6886": " Snap",
  "6887": " wiping",
  "6888": " steer",
  "6889": " lamb",
  "6890": " Rain",
  "6891": " honked",
  "6892": "etty",
  "6893": "nies",
  "6894": "Whee",
  "6895": " cowb",
  "6896": " separated",
  "6897": "blings",
  "6898": " siblings",
  "6899": " hops",
  "6900": " chop",
  "6901": " sewing",
  "6902": " fires",
  "6903": " Twinkle",
  "6904": " fever",
  "6905": " twinkle",
  "6906": " ty",
  "6907": " camping",
  "6908": " Mira",
  "6909": " lower",
  "6910": " changing",
  "6911": "yes",
  "6912": "retch",
  "6913": " behavi",
  "6914": " Bloom",
  "6915": "mas",
  "6916": " liqu",
  "6917": " celebration",
  "6918": "but",
  "6919": " squealed",
  "6920": " dollhouse",
  "6921": "Sunny",
  "6922": " backward",
  "6923": " age",
  "6924": " snatched",
  "6925": " cash",
  "6926": "ho",
  "6927": " twice",
  "6928": "lee",
  "6929": " sway",
  "6930": "itched",
  "6931": " celebrating",
  "6932": " Peanut",
  "6933": " shrinking",
  "6934": " ache",
  "6935": "weed",
  "6936": " kings",
  "6937": "rious",
  "6938": " shops",
  "6939": " kittens",
  "6940": "cope",
  "6941": "Rose",
  "6942": " Jessica",
  "6943": " Jacob",
  "6944": " Gina",
  "6945": "aura",
  "6946": " hus",
  "6947": " touches",
  "6948": "airy",
  "6949": " pancakes",
  "6950": " avoid",
  "6951": " spat",
  "6952": " Frosty",
  "6953": "rig",
  "6954": "hog",
  "6955": " Nina",
  "6956": " paths",
  "6957": "ives",
  "6958": "cky",
  "6959": " Hold",
  "6960": " rotten",
  "6961": " calmed",
  "6962": "Sandy",
  "6963": " seaweed",
  "6964": " dropping",
  "6965": " Jon",
  "6966": " Mel",
  "6967": "iles",
  "6968": "Pipp",
  "6969": " twisting",
  "6970": " stroked",
  "6971": " untied",
  "6972": "llen",
  "6973": " playhouse",
  "6974": "ne",
  "6975": "Millie",
  "6976": " students",
  "6977": " puppies",
  "6978": "cl",
  "6979": " Sof",
  "6980": "hi",
  "6981": " screws",
  "6982": " astron",
  "6983": " Re",
  "6984": " somebody",
  "6985": "igning",
  "6986": " liquid",
  "6987": "ammy",
  "6988": " wakes",
  "6989": " squish",
  "6990": " Woof",
  "6991": " bracelets",
  "6992": " astronaut",
  "6993": "immer",
  "6994": "aren",
  "6995": " thrown",
  "6996": " loops",
  "6997": " Other",
  "6998": "Luckily",
  "6999": " wrapping",
  "7000": " plain",
  "7001": " tramp",
  "7002": " planning",
  "7003": " skunk",
  "7004": " aimed",
  "7005": " pennies",
  "7006": " shoo",
  "7007": " lifts",
  "7008": " dancers",
  "7009": " sparks",
  "7010": " firefly",
  "7011": "pen",
  "7012": "Dan",
  "7013": " poster",
  "7014": "yan",
  "7015": "endy",
  "7016": " cust",
  "7017": " Christmas",
  "7018": " rewarded",
  "7019": " objects",
  "7020": " directions",
  "7021": "using",
  "7022": "ingo",
  "7023": " reflection",
  "7024": " husband",
  "7025": "—",
  "7026": "Take",
  "7027": "river",
  "7028": " clues",
  "7029": "uppy",
  "7030": " leads",
  "7031": " increased",
  "7032": " blocked",
  "7033": " rising",
  "7034": " dod",
  "7035": " cousin",
  "7036": " Yesterday",
  "7037": " Without",
  "7038": " forgetting",
  "7039": "rigued",
  "7040": " custom",
  "7041": "Kate",
  "7042": "ude",
  "7043": " trampoline",
  "7044": " beginning",
  "7045": " storekeeper",
  "7046": " pouted",
  "7047": " zebras",
  "7048": " hedgehog",
  "7049": " aff",
  "7050": " ‘",
  "7051": " borrowed",
  "7052": " Rollie",
  "7053": " snowfl",
  "7054": " countryside",
  "7055": "Jump",
  "7056": " mesmer",
  "7057": " Jay",
  "7058": " vehicles",
  "7059": " instrum",
  "7060": " Mic",
  "7061": " Kayla",
  "7062": " Up",
  "7063": " frowning",
  "7064": "ivity",
  "7065": "Pat",
  "7066": "Under",
  "7067": " marker",
  "7068": "yond",
  "7069": " presses",
  "7070": " beyond",
  "7071": " Queen",
  "7072": " damage",
  "7073": " Only",
  "7074": "iece",
  "7075": "ivery",
  "7076": " fart",
  "7077": " Tara",
  "7078": " Biggie",
  "7079": "jo",
  "7080": " health",
  "7081": " whispers",
  "7082": " swimsuit",
  "7083": " slips",
  "7084": " nibb",
  "7085": " Julia",
  "7086": "armer",
  "7087": " warmer",
  "7088": " flapping",
  "7089": " tiptoed",
  "7090": " regretted",
  "7091": "itted",
  "7092": "Zip",
  "7093": " laying",
  "7094": " Robo",
  "7095": "ades",
  "7096": " yelp",
  "7097": " Fire",
  "7098": " rains",
  "7099": " glued",
  "7100": " everybody",
  "7101": " creations",
  "7102": " hearing",
  "7103": " swir",
  "7104": " colder",
  "7105": "iversity",
  "7106": "ael",
  "7107": " shaped",
  "7108": " Elephant",
  "7109": " streets",
  "7110": " fins",
  "7111": " rusty",
  "7112": " cushions",
  "7113": "Out",
  "7114": " san",
  "7115": " farthest",
  "7116": " creativity",
  "7117": " Mikey",
  "7118": "ans",
  "7119": " sale",
  "7120": "Always",
  "7121": "Co",
  "7122": " strongest",
  "7123": "ibbit",
  "7124": " fits",
  "7125": " Sparky",
  "7126": " bells",
  "7127": " dollars",
  "7128": " Larry",
  "7129": " earn",
  "7130": "iam",
  "7131": "angle",
  "7132": " lending",
  "7133": " Moon",
  "7134": " Chirp",
  "7135": "eese",
  "7136": " cashier",
  "7137": "Milly",
  "7138": " including",
  "7139": " sniffs",
  "7140": " sank",
  "7141": " raincoat",
  "7142": " Rich",
  "7143": " trembled",
  "7144": " stopping",
  "7145": " source",
  "7146": "iti",
  "7147": "imon",
  "7148": " Missy",
  "7149": " wobbly",
  "7150": " indeed",
  "7151": "ters",
  "7152": " guests",
  "7153": " single",
  "7154": " recommended",
  "7155": " wee",
  "7156": " spells",
  "7157": " accomplishment",
  "7158": " belts",
  "7159": " surprising",
  "7160": " ends",
  "7161": " hopeful",
  "7162": " seasons",
  "7163": " Take",
  "7164": " Snowman",
  "7165": " Els",
  "7166": "Bear",
  "7167": " plans",
  "7168": "ichael",
  "7169": " encourag",
  "7170": " supported",
  "7171": "stick",
  "7172": "illed",
  "7173": " suffered",
  "7174": " artist",
  "7175": " performance",
  "7176": "eet",
  "7177": "Nina",
  "7178": " slowed",
  "7179": " gross",
  "7180": " flavors",
  "7181": "iding",
  "7182": "ertain",
  "7183": " spins",
  "7184": "cho",
  "7185": "Quack",
  "7186": " labels",
  "7187": " raindrops",
  "7188": " delivery",
  "7189": "uing",
  "7190": "arac",
  "7191": " raccoon",
  "7192": " forgiving",
  "7193": "obody",
  "7194": " Woo",
  "7195": " pours",
  "7196": "the",
  "7197": "ility",
  "7198": " vanilla",
  "7199": " turtles",
  "7200": " stands",
  "7201": "Bill",
  "7202": "uess",
  "7203": " recipe",
  "7204": " beam",
  "7205": " tying",
  "7206": " Sw",
  "7207": " geese",
  "7208": " willing",
  "7209": " robber",
  "7210": " drawn",
  "7211": "Vroom",
  "7212": " wept",
  "7213": " Bones",
  "7214": " charac",
  "7215": " pops",
  "7216": " corners",
  "7217": " Sophia",
  "7218": "elia",
  "7219": " queens",
  "7220": " sailboat",
  "7221": " grip",
  "7222": " die",
  "7223": " drivers",
  "7224": "itude",
  "7225": " moo",
  "7226": " hallway",
  "7227": " imagining",
  "7228": " seconds",
  "7229": " Fuzzy",
  "7230": "Mine",
  "7231": " preparing",
  "7232": " widened",
  "7233": " adult",
  "7234": " Spirit",
  "7235": " grocer",
  "7236": " coop",
  "7237": " talented",
  "7238": " Pam",
  "7239": " Beaky",
  "7240": " Izzy",
  "7241": "ummies",
  "7242": " sailors",
  "7243": "lling",
  "7244": " softer",
  "7245": " aside",
  "7246": " watering",
  "7247": " sending",
  "7248": " knots",
  "7249": " unsure",
  "7250": " tipped",
  "7251": "Lulu",
  "7252": " treehouse",
  "7253": " horiz",
  "7254": " Lizzie",
  "7255": " notes",
  "7256": " echo",
  "7257": "igers",
  "7258": " achieved",
  "7259": " horizon",
  "7260": " squeak",
  "7261": " delivering",
  "7262": " pleasure",
  "7263": " hotter",
  "7264": " Stella",
  "7265": "Clara",
  "7266": " pupils",
  "7267": " burrow",
  "7268": " angels",
  "7269": " curiously",
  "7270": "Ellie",
  "7271": " yum",
  "7272": " blinking",
  "7273": " June",
  "7274": " tweet",
  "7275": " symbols",
  "7276": " det",
  "7277": " Stretch",
  "7278": "wk",
  "7279": " passen",
  "7280": " Rudy",
  "7281": " Cindy",
  "7282": " tummies",
  "7283": " tiss",
  "7284": " pigeons",
  "7285": " figures",
  "7286": "umbling",
  "7287": "oey",
  "7288": " bandages",
  "7289": " Robert",
  "7290": " coup",
  "7291": " Doctor",
  "7292": " robots",
  "7293": "alph",
  "7294": " tossed",
  "7295": " hour",
  "7296": " backwards",
  "7297": " roars",
  "7298": "Baby",
  "7299": " merma",
  "7300": "uzz",
  "7301": " rather",
  "7302": "atur",
  "7303": "Maria",
  "7304": "cited",
  "7305": " Play",
  "7306": " Crab",
  "7307": "Moo",
  "7308": "ighting",
  "7309": "Dolly",
  "7310": " groceries",
  "7311": " zipping",
  "7312": "Put",
  "7313": "Very",
  "7314": " unw",
  "7315": "prin",
  "7316": " among",
  "7317": " blown",
  "7318": " icing",
  "7319": "!”.",
  "7320": " rumble",
  "7321": " afterwards",
  "7322": "ipper",
  "7323": " screwd",
  "7324": "ushing",
  "7325": " sped",
  "7326": " prove",
  "7327": " glee",
  "7328": " Titi",
  "7329": " Tia",
  "7330": " dip",
  "7331": " overcome",
  "7332": "Ruby",
  "7333": "Quick",
  "7334": " surfboard",
  "7335": " shovels",
  "7336": " slices",
  "7337": " Toot",
  "7338": " merry",
  "7339": " wobble",
  "7340": " mate",
  "7341": " Turt",
  "7342": " Abbie",
  "7343": " heading",
  "7344": " disturbing",
  "7345": " swall",
  "7346": " reversed",
  "7347": " firefighters",
  "7348": "Jul",
  "7349": " swallowed",
  "7350": " chip",
  "7351": "eds",
  "7352": " scored",
  "7353": " flipped",
  "7354": " Jump",
  "7355": " squeezing",
  "7356": "usty",
  "7357": "Frank",
  "7358": "aty",
  "7359": "Su",
  "7360": " waking",
  "7361": " intrigued",
  "7362": "Sad",
  "7363": "Like",
  "7364": " maker",
  "7365": " Barky",
  "7366": "awn",
  "7367": "Betty",
  "7368": " puff",
  "7369": " hawk",
  "7370": " encouraging",
  "7371": " aud",
  "7372": " Ex",
  "7373": "osen",
  "7374": "onies",
  "7375": " chosen",
  "7376": " Ron",
  "7377": "hew",
  "7378": " Farmer",
  "7379": " Ang",
  "7380": " couple",
  "7381": " designs",
  "7382": " slipping",
  "7383": " screwdriver",
  "7384": " squishy",
  "7385": " Emmy",
  "7386": " gardener",
  "7387": " center",
  "7388": " rivers",
  "7389": " respond",
  "7390": " markers",
  "7391": "iley",
  "7392": " tigers",
  "7393": " jars",
  "7394": "pecting",
  "7395": " frowns",
  "7396": "bird",
  "7397": " fluttered",
  "7398": " Sadly",
  "7399": " Kit",
  "7400": "Ribbit",
  "7401": " firefighter",
  "7402": " Sl",
  "7403": " Ryan",
  "7404": " suits",
  "7405": " secure",
  "7406": " sprinkled",
  "7407": " creamy",
  "7408": "ashes",
  "7409": " sharks",
  "7410": " ignoring",
  "7411": " bru",
  "7412": " giggles",
  "7413": " tissue",
  "7414": " tighter",
  "7415": " firmly",
  "7416": "ounce",
  "7417": " Laura",
  "7418": "fly",
  "7419": " shown",
  "7420": " familiar",
  "7421": " thorns",
  "7422": "Spike",
  "7423": " Wo",
  "7424": " drawers",
  "7425": "child",
  "7426": " Zee",
  "7427": " express",
  "7428": "Car",
  "7429": "ments",
  "7430": " def",
  "7431": " daring",
  "7432": " crossing",
  "7433": " audience",
  "7434": " performing",
  "7435": " coloured",
  "7436": " cloudy",
  "7437": " cor",
  "7438": " ais",
  "7439": " Nick",
  "7440": "ae",
  "7441": "rat",
  "7442": " pedaled",
  "7443": "Get",
  "7444": " mixture",
  "7445": " til",
  "7446": " gracefully",
  "7447": "ggy",
  "7448": " haircuts",
  "7449": " yielded",
  "7450": " ponies",
  "7451": " disob",
  "7452": " crowns",
  "7453": " bits",
  "7454": " todd",
  "7455": " Sleep",
  "7456": " nervously",
  "7457": " hangers",
  "7458": "bbled",
  "7459": " Patch",
  "7460": "Zoomy",
  "7461": " pays",
  "7462": " 2",
  "7463": " peck",
  "7464": " stroke",
  "7465": " ev",
  "7466": "fall",
  "7467": "Bang",
  "7468": "een",
  "7469": " respected",
  "7470": " napped",
  "7471": "aven",
  "7472": " minded",
  "7473": "ddie",
  "7474": "Bessie",
  "7475": "ably",
  "7476": "Boys",
  "7477": " tested",
  "7478": "ading",
  "7479": "parent",
  "7480": " Chris",
  "7481": "Kim",
  "7482": " University",
  "7483": " Near",
  "7484": " beeh",
  "7485": " Turtle",
  "7486": " surfing",
  "7487": " neighbours",
  "7488": "arrow",
  "7489": "vered",
  "7490": " shady",
  "7491": "iona",
  "7492": "arlings",
  "7493": " magician",
  "7494": " enthusiasm",
  "7495": " darlings",
  "7496": " wisely",
  "7497": " stitches",
  "7498": " sails",
  "7499": "kend",
  "7500": "Dear",
  "7501": " weekend",
  "7502": " thoughts",
  "7503": "Freddy",
  "7504": " Tweetie",
  "7505": " reminds",
  "7506": " temper",
  "7507": "oring",
  "7508": "tha",
  "7509": "antha",
  "7510": " surroundings",
  "7511": " spits",
  "7512": " fleas",
  "7513": " teams",
  "7514": " lessons",
  "7515": " fills",
  "7516": " flip",
  "7517": " Along",
  "7518": " paintbrush",
  "7519": " melons",
  "7520": " mermaid",
  "7521": "oni",
  "7522": "Katie",
  "7523": " grandchild",
  "7524": " hoops",
  "7525": " explo",
  "7526": " elbow",
  "7527": " sports",
  "7528": "Guess",
  "7529": " lies",
  "7530": " Fighting",
  "7531": "rac",
  "7532": " panicked",
  "7533": " cleaner",
  "7534": " amount",
  "7535": "cused",
  "7536": " longest",
  "7537": " scooters",
  "7538": " lent",
  "7539": "ita",
  "7540": "immering",
  "7541": " sill",
  "7542": " beloved",
  "7543": "Pippin",
  "7544": " beehive",
  "7545": "Alright",
  "7546": "ongrat",
  "7547": "oga",
  "7548": "lle",
  "7549": "ongratul",
  "7550": " oysters",
  "7551": " grandparent",
  "7552": " forgiven",
  "7553": " magazines",
  "7554": " arr",
  "7555": " Wise",
  "7556": " elf",
  "7557": " repeating",
  "7558": " discussed",
  "7559": " sweetest",
  "7560": " Thanks",
  "7561": "Keep",
  "7562": " wadd",
  "7563": " Maya",
  "7564": " reass",
  "7565": " lace",
  "7566": " Granny",
  "7567": " nightmares",
  "7568": " tubes",
  "7569": " Willy",
  "7570": " understands",
  "7571": " spoonful",
  "7572": " nood",
  "7573": " bathing",
  "7574": " Zoey",
  "7575": "asty",
  "7576": "Am",
  "7577": " sweep",
  "7578": " manners",
  "7579": "crow",
  "7580": "Uncle",
  "7581": " wrink",
  "7582": " sprang",
  "7583": " nur",
  "7584": " bully",
  "7585": " Holly",
  "7586": " guide",
  "7587": " Yet",
  "7588": "onna",
  "7589": "ancy",
  "7590": " crew",
  "7591": "romise",
  "7592": "Jazz",
  "7593": " breathed",
  "7594": "while",
  "7595": "steps",
  "7596": "ilda",
  "7597": "ently",
  "7598": " Bally",
  "7599": " bulbs",
  "7600": " neare",
  "7601": " grassy",
  "7602": " wiggly",
  "7603": " testing",
  "7604": " spies",
  "7605": " coug",
  "7606": " solving",
  "7607": " sheets",
  "7608": " Roo",
  "7609": " footsteps",
  "7610": "ntil",
  "7611": "Afterwards",
  "7612": " speeding",
  "7613": " focused",
  "7614": "ounced",
  "7615": "cept",
  "7616": "?!\"",
  "7617": " mesmerized",
  "7618": " camel",
  "7619": " braver",
  "7620": " hesitant",
  "7621": " Sparkle",
  "7622": " licking",
  "7623": " rushing",
  "7624": " Well",
  "7625": " joining",
  "7626": " Puppy",
  "7627": " polar",
  "7628": " greeted",
  "7629": " Martha",
  "7630": "espite",
  "7631": "--",
  "7632": " Bubb",
  "7633": "Which",
  "7634": "Kiki",
  "7635": " worn",
  "7636": " materials",
  "7637": " changes",
  "7638": " Nobody",
  "7639": "undred",
  "7640": " stored",
  "7641": " bicycles",
  "7642": " mast",
  "7643": " anger",
  "7644": "Leave",
  "7645": " peacefully",
  "7646": " ships",
  "7647": " spice",
  "7648": " terrified",
  "7649": " nuzz",
  "7650": " gonna",
  "7651": " Show",
  "7652": " politely",
  "7653": "Snow",
  "7654": " spills",
  "7655": " scarecrow",
  "7656": " knives",
  "7657": " evil",
  "7658": " Mixy",
  "7659": "ppies",
  "7660": " burying",
  "7661": "ca",
  "7662": " healing",
  "7663": " aren",
  "7664": " donkey",
  "7665": " aeroplanes",
  "7666": "freeze",
  "7667": "Even",
  "7668": " seals",
  "7669": " scattering",
  "7670": " miles",
  "7671": " Chewy",
  "7672": "amboo",
  "7673": " dump",
  "7674": " worrying",
  "7675": "Bee",
  "7676": "zoom",
  "7677": "beep",
  "7678": "David",
  "7679": " Lenny",
  "7680": " puzzled",
  "7681": " stacked",
  "7682": " Kip",
  "7683": "Penny",
  "7684": " Nice",
  "7685": " loses",
  "7686": "dding",
  "7687": " travelled",
  "7688": " baskets",
  "7689": " Win",
  "7690": " Okay",
  "7691": " gazing",
  "7692": " blast",
  "7693": "ipes",
  "7694": " Tess",
  "7695": "Hurry",
  "7696": " temperature",
  "7697": " und",
  "7698": " tasting",
  "7699": " dripping",
  "7700": " clue",
  "7701": " believing",
  "7702": " pinching",
  "7703": "erm",
  "7704": " soaking",
  "7705": " rats",
  "7706": " 10",
  "7707": "isc",
  "7708": " sandy",
  "7709": "rect",
  "7710": " Isn",
  "7711": " Simon",
  "7712": "rey",
  "7713": "anwhile",
  "7714": " Abi",
  "7715": "Binky",
  "7716": " punishment",
  "7717": " banged",
  "7718": " humans",
  "7719": " crashing",
  "7720": " force",
  "7721": " Ana",
  "7722": " hundred",
  "7723": " gest",
  "7724": " Lia",
  "7725": " swimmer",
  "7726": " Chess",
  "7727": " snowflakes",
  "7728": " relaxing",
  "7729": " resisted",
  "7730": " beeped",
  "7731": " Fairy",
  "7732": " quarreled",
  "7733": "form",
  "7734": "elie",
  "7735": " ramp",
  "7736": " Wendy",
  "7737": " joins",
  "7738": "abby",
  "7739": " backpacks",
  "7740": " Ph",
  "7741": "years",
  "7742": " dressing",
  "7743": " delayed",
  "7744": " toddler",
  "7745": " Luckily",
  "7746": " flight",
  "7747": " covering",
  "7748": " Te",
  "7749": "orter",
  "7750": "Two",
  "7751": "Open",
  "7752": "By",
  "7753": " encouragement",
  "7754": " benches",
  "7755": " toward",
  "7756": " scraped",
  "7757": " purpose",
  "7758": " focus",
  "7759": " Judy",
  "7760": "Bow",
  "7761": " correct",
  "7762": "'.\"",
  "7763": " lipstick",
  "7764": " bamboo",
  "7765": "Spe",
  "7766": " twinkled",
  "7767": " potion",
  "7768": " permitted",
  "7769": " months",
  "7770": " Cow",
  "7771": " languages",
  "7772": " orders",
  "7773": " freedom",
  "7774": "Tony",
  "7775": " risks",
  "7776": " poppies",
  "7777": " master",
  "7778": "shm",
  "7779": " noodles",
  "7780": " faded",
  "7781": " wounds",
  "7782": "shmallow",
  "7783": "rier",
  "7784": "Kids",
  "7785": "isions",
  "7786": " Jojo",
  "7787": " creams",
  "7788": " birdhouse",
  "7789": " cells",
  "7790": " annoyed",
  "7791": " Herb",
  "7792": "opes",
  "7793": " sniffing",
  "7794": " cheers",
  "7795": " adults",
  "7796": "Birdy",
  "7797": " unwra",
  "7798": "ecca",
  "7799": "Buzzy",
  "7800": " puck",
  "7801": " opinions",
  "7802": " floats",
  "7803": "andas",
  "7804": "Instead",
  "7805": " flown",
  "7806": " sneezes",
  "7807": " scen",
  "7808": " handsome",
  "7809": " nodding",
  "7810": " Mint",
  "7811": " smelling",
  "7812": " burnt",
  "7813": " 5",
  "7814": " drifted",
  "7815": "ider",
  "7816": "bage",
  "7817": " within",
  "7818": " scient",
  "7819": " height",
  "7820": " damaged",
  "7821": " bothering",
  "7822": " tearing",
  "7823": " slither",
  "7824": " pleaded",
  "7825": " instruments",
  "7826": " ease",
  "7827": " Ali",
  "7828": "da",
  "7829": "Back",
  "7830": " scientist",
  "7831": " Marie",
  "7832": "Mira",
  "7833": "Goodnight",
  "7834": " pound",
  "7835": " seller",
  "7836": " handing",
  "7837": " germ",
  "7838": " Say",
  "7839": " wasting",
  "7840": " files",
  "7841": " results",
  "7842": " dreamt",
  "7843": " Mabel",
  "7844": "bell",
  "7845": " explains",
  "7846": " destroying",
  "7847": " brushing",
  "7848": "ousy",
  "7849": " hiss",
  "7850": " characters",
  "7851": " Razor",
  "7852": " Cr",
  "7853": "Carl",
  "7854": " certain",
  "7855": " Ste",
  "7856": "Pandy",
  "7857": "Behind",
  "7858": " sweaty",
  "7859": " Hug",
  "7860": "unched",
  "7861": " business",
  "7862": " Robbie",
  "7863": " talents",
  "7864": " onward",
  "7865": "Try",
  "7866": " engines",
  "7867": " bravest",
  "7868": "ition",
  "7869": " sternly",
  "7870": " Pen",
  "7871": " Janie",
  "7872": "prints",
  "7873": " postman",
  "7874": " mosquitoes",
  "7875": " minds",
  "7876": "under",
  "7877": "cake",
  "7878": " tuck",
  "7879": " scares",
  "7880": "urious",
  "7881": " stomp",
  "7882": " apologised",
  "7883": "uel",
  "7884": " manag",
  "7885": " snuck",
  "7886": " bitten",
  "7887": "attered",
  "7888": " tilted",
  "7889": " switched",
  "7890": " reminding",
  "7891": " decisions",
  "7892": " singers",
  "7893": " desper",
  "7894": " behavior",
  "7895": " Poor",
  "7896": "ashing",
  "7897": " Judge",
  "7898": "bbers",
  "7899": "inny",
  "7900": " squeaked",
  "7901": " peeled",
  "7902": " Everybody",
  "7903": " yumm",
  "7904": " purrs",
  "7905": " Bra",
  "7906": " treated",
  "7907": " smashed",
  "7908": " rustling",
  "7909": " displayed",
  "7910": " Until",
  "7911": " neatly",
  "7912": " matey",
  "7913": " planting",
  "7914": " Bess",
  "7915": " marshmallow",
  "7916": " insp",
  "7917": " yelped",
  "7918": " sy",
  "7919": " grandparents",
  "7920": " cracks",
  "7921": " bellies",
  "7922": "aver",
  "7923": " shines",
  "7924": " scamp",
  "7925": " Navy",
  "7926": " hoo",
  "7927": " failed",
  "7928": " coloring",
  "7929": " Yoga",
  "7930": "line",
  "7931": " zooms",
  "7932": " Make",
  "7933": "rup",
  "7934": " nasty",
  "7935": " breathing",
  "7936": " combed",
  "7937": " pandas",
  "7938": " despite",
  "7939": " address",
  "7940": "ighing",
  "7941": " waterfall",
  "7942": "uffin",
  "7943": "omp",
  "7944": "cc",
  "7945": " Loop",
  "7946": " Angel",
  "7947": "Tilly",
  "7948": " wider",
  "7949": " robbers",
  "7950": " antic",
  "7951": "Play",
  "7952": "Abigail",
  "7953": " sweaters",
  "7954": " echoed",
  "7955": " doorway",
  "7956": " Todd",
  "7957": "evin",
  "7958": " edges",
  "7959": " inj",
  "7960": " Shadow",
  "7961": "Aunt",
  "7962": " gap",
  "7963": " disobey",
  "7964": " Blinky",
  "7965": "wise",
  "7966": "Liz",
  "7967": " Michael",
  "7968": " tar",
  "7969": " Flick",
  "7970": "oscope",
  "7971": "orking",
  "7972": "Wake",
  "7973": " taped",
  "7974": " magnif",
  "7975": "ulp",
  "7976": "father",
  "7977": " scolds",
  "7978": " flaps",
  "7979": " action",
  "7980": " crawls",
  "7981": " Mindy",
  "7982": "Ros",
  "7983": " swap",
  "7984": " gobbled",
  "7985": " backs",
  "7986": " Gary",
  "7987": " warri",
  "7988": " Fishy",
  "7989": " Eddie",
  "7990": "Slow",
  "7991": " steth",
  "7992": " sever",
  "7993": " shinier",
  "7994": " probably",
  "7995": " newspapers",
  "7996": " several",
  "7997": " occ",
  "7998": "Rock",
  "7999": "Lena",
  "8000": " encount",
  "8001": " Meg",
  "8002": " serving",
  "8003": " quieter",
  "8004": " plucked",
  "8005": " connected",
  "8006": "tock",
  "8007": " Share",
  "8008": " ouch",
  "8009": "igger",
  "8010": "Ted",
  "8011": "Adam",
  "8012": " gesture",
  "8013": "Too",
  "8014": "Fl",
  "8015": " student",
  "8016": " plot",
  "8017": " doorbell",
  "8018": " squaw",
  "8019": " cares",
  "8020": "fire",
  "8021": " rescuing",
  "8022": " grandson",
  "8023": " Se",
  "8024": " spy",
  "8025": " simply",
  "8026": " rows",
  "8027": " goo",
  "8028": "iel",
  "8029": " whistles",
  "8030": "mies",
  "8031": "vant",
  "8032": "Shrink",
  "8033": "Magic",
  "8034": " snaps",
  "8035": " shorter",
  "8036": " astronauts",
  "8037": "ssss",
  "8038": " unpacking",
  "8039": " cottage",
  "8040": " Time",
  "8041": " swo",
  "8042": " accidents",
  "8043": "ibi",
  "8044": " swollen",
  "8045": " mood",
  "8046": " Nut",
  "8047": "Steve",
  "8048": "abelle",
  "8049": " Zippy",
  "8050": " Mousy",
  "8051": "anie",
  "8052": "Zara",
  "8053": " bothered",
  "8054": "Hannah",
  "8055": " stethoscope",
  "8056": "found",
  "8057": " trusting",
  "8058": " causing",
  "8059": "Mat",
  "8060": "Mad",
  "8061": " leapt",
  "8062": " dresser",
  "8063": "aint",
  "8064": " sou",
  "8065": " proper",
  "8066": " pills",
  "8067": "retty",
  "8068": " throughout",
  "8069": "Olive",
  "8070": " runner",
  "8071": " prayers",
  "8072": " Dina",
  "8073": " joyful",
  "8074": "Thomas",
  "8075": "mates",
  "8076": " locks",
  "8077": " Prince",
  "8078": "Jamie",
  "8079": " goats",
  "8080": "what",
  "8081": " target",
  "8082": "rest",
  "8083": " Wait",
  "8084": " Karen",
  "8085": " dears",
  "8086": " Bang",
  "8087": "artled",
  "8088": "Red",
  "8089": " waddled",
  "8090": " munch",
  "8091": " flips",
  "8092": " Cro",
  "8093": " lowered",
  "8094": " stepping",
  "8095": " cons",
  "8096": " Jackie",
  "8097": " teachers",
  "8098": " cowboy",
  "8099": " Toys",
  "8100": " inches",
  "8101": " envelopes",
  "8102": "ears",
  "8103": " char",
  "8104": " Vroom",
  "8105": " explorer",
  "8106": " anticip",
  "8107": " playd",
  "8108": " Ready",
  "8109": " Ruff",
  "8110": " Ralph",
  "8111": "unity",
  "8112": "Nice",
  "8113": "Finn",
  "8114": " Bad",
  "8115": "ening",
  "8116": " knocking",
  "8117": " floors",
  "8118": " efforts",
  "8119": " Pl",
  "8120": " uniforms",
  "8121": "lied",
  "8122": " Tri",
  "8123": " aware",
  "8124": " footprints",
  "8125": "Someone",
  "8126": " nearly",
  "8127": " Fiona",
  "8128": "llas",
  "8129": " disc",
  "8130": " Ria",
  "8131": "ivi",
  "8132": " whimp",
  "8133": " trot",
  "8134": " sens",
  "8135": " glitt",
  "8136": " appreciation",
  "8137": "oosh",
  "8138": " necks",
  "8139": " collap",
  "8140": " checks",
  "8141": " lapt",
  "8142": " except",
  "8143": " plug",
  "8144": " charge",
  "8145": " Jacky",
  "8146": " fluttering",
  "8147": " umbrellas",
  "8148": " stamped",
  "8149": "acy",
  "8150": " sandcastles",
  "8151": " Davey",
  "8152": " statues",
  "8153": " Honey",
  "8154": "omb",
  "8155": "iscuit",
  "8156": "ails",
  "8157": "Hoppy",
  "8158": " shrank",
  "8159": " Amelia",
  "8160": "rily",
  "8161": " prick",
  "8162": " finishing",
  "8163": " adds",
  "8164": "rons",
  "8165": " stroll",
  "8166": " hunters",
  "8167": " dodged",
  "8168": " chocolates",
  "8169": " passengers",
  "8170": " germs",
  "8171": "oger",
  "8172": " wrigg",
  "8173": " aprons",
  "8174": " aisle",
  "8175": " sets",
  "8176": ".'\"",
  "8177": " Gerry",
  "8178": " weeds",
  "8179": " novels",
  "8180": "order",
  "8181": " demanding",
  "8182": " Taking",
  "8183": " scratching",
  "8184": " meows",
  "8185": "issa",
  "8186": "Dr",
  "8187": " nurses",
  "8188": "Lucky",
  "8189": " minding",
  "8190": " discussing",
  "8191": "urrender",
  "8192": " killed",
  "8193": " driveway",
  "8194": " Cari",
  "8195": " becomes",
  "8196": " toolbox",
  "8197": " laptop",
  "8198": " haird",
  "8199": " Eliz",
  "8200": " posit",
  "8201": " attack",
  "8202": " Sadie",
  "8203": " Despite",
  "8204": "Speedy",
  "8205": " Gl",
  "8206": "sol",
  "8207": " scampered",
  "8208": " bounces",
  "8209": " supplied",
  "8210": " sprays",
  "8211": " deed",
  "8212": " tempt",
  "8213": " suggestion",
  "8214": " friendships",
  "8215": " burns",
  "8216": "Coco",
  "8217": " slapping",
  "8218": " closing",
  "8219": "Arrr",
  "8220": " invites",
  "8221": " belongings",
  "8222": " anticipation",
  "8223": " springing",
  "8224": " form",
  "8225": " erase",
  "8226": " cotton",
  "8227": " Stan",
  "8228": " twists",
  "8229": " rays",
  "8230": " snuggle",
  "8231": " forgives",
  "8232": " models",
  "8233": " shall",
  "8234": " massages",
  "8235": " humming",
  "8236": "onnie",
  "8237": " responded",
  "8238": " newfound",
  "8239": " ghosts",
  "8240": " expecting",
  "8241": " Shelly",
  "8242": " cheated",
  "8243": "Does",
  "8244": " Wooly",
  "8245": "Gigi",
  "8246": "otte",
  "8247": " traveling",
  "8248": " Ne",
  "8249": " cond",
  "8250": " battle",
  "8251": " although",
  "8252": "alloween",
  "8253": " mommies",
  "8254": " invitations",
  "8255": " carries",
  "8256": " aim",
  "8257": " refreshing",
  "8258": " presented",
  "8259": " conc",
  "8260": "hel",
  "8261": " twenty",
  "8262": " rowed",
  "8263": " Bumpy",
  "8264": "ots",
  "8265": " squir",
  "8266": "rie",
  "8267": "arlotte",
  "8268": " foxes",
  "8269": " cooper",
  "8270": " final",
  "8271": " duckling",
  "8272": " cafe",
  "8273": " Bibi",
  "8274": "Pip",
  "8275": " marshmallows",
  "8276": " clicked",
  "8277": " Zipper",
  "8278": "oor",
  "8279": " jets",
  "8280": " designing",
  "8281": " beaver",
  "8282": "five",
  "8283": " Muffin",
  "8284": " Halloween",
  "8285": " mugs",
  "8286": " Whoever",
  "8287": " drown",
  "8288": " Although",
  "8289": " tricycle",
  "8290": " picnics",
  "8291": " oppos",
  "8292": " convin",
  "8293": " Ruth",
  "8294": " Excited",
  "8295": "iens",
  "8296": " Cle",
  "8297": "po",
  "8298": " scoops",
  "8299": " congratul",
  "8300": " Pop",
  "8301": " Maddie",
  "8302": "Sadly",
  "8303": " —",
  "8304": " travels",
  "8305": " aliens",
  "8306": " tests",
  "8307": " questioned",
  "8308": " Speed",
  "8309": "inted",
  "8310": " strips",
  "8311": " craft",
  "8312": "Near",
  "8313": "atty",
  "8314": "Mouse",
  "8315": "covered",
  "8316": " defe",
  "8317": " Flutter",
  "8318": " Bubba",
  "8319": "iri",
  "8320": "Br",
  "8321": " fights",
  "8322": "roken",
  "8323": "Ball",
  "8324": " opposite",
  "8325": " Biggy",
  "8326": "Hmm",
  "8327": "Find",
  "8328": "Elly",
  "8329": "Chloe",
  "8330": " Im",
  "8331": " rout",
  "8332": " grandfather",
  "8333": " encountered",
  "8334": " afford",
  "8335": " Never",
  "8336": " decl",
  "8337": "inch",
  "8338": " raising",
  "8339": "iment",
  "8340": " upside",
  "8341": " Vivi",
  "8342": "Meanwhile",
  "8343": "Jess",
  "8344": " flashed",
  "8345": " calmly",
  "8346": " Rita",
  "8347": " yawning",
  "8348": " sincere",
  "8349": " realizes",
  "8350": "aturday",
  "8351": "Trust",
  "8352": "Choo",
  "8353": " crystals",
  "8354": " buddy",
  "8355": " Samantha",
  "8356": " cupcakes",
  "8357": " buckled",
  "8358": "byes",
  "8359": "Both",
  "8360": " winners",
  "8361": " defin",
  "8362": "verse",
  "8363": "ris",
  "8364": "',",
  "8365": " weapons",
  "8366": " caw",
  "8367": "shadow",
  "8368": "Josh",
  "8369": " packages",
  "8370": " cheat",
  "8371": " Saturday",
  "8372": " sacks",
  "8373": " messes",
  "8374": " goodbyes",
  "8375": " coach",
  "8376": " attem",
  "8377": "quet",
  "8378": " convers",
  "8379": " Truck",
  "8380": " Flo",
  "8381": "val",
  "8382": " drift",
  "8383": " caps",
  "8384": " Mina",
  "8385": " Eva",
  "8386": "emies",
  "8387": " enemies",
  "8388": "asha",
  "8389": " yummiest",
  "8390": " scrub",
  "8391": " swallow",
  "8392": " returning",
  "8393": "rian",
  "8394": " admiration",
  "8395": " Softy",
  "8396": " Megan",
  "8397": "Since",
  "8398": " sprout",
  "8399": " Louise",
  "8400": " unable",
  "8401": " Playing",
  "8402": " Another",
  "8403": "ugging",
  "8404": "ooks",
  "8405": " sadder",
  "8406": " freezing",
  "8407": " brightest",
  "8408": " bless",
  "8409": " Yawn",
  "8410": " respon",
  "8411": " Man",
  "8412": "reverse",
  "8413": " response",
  "8414": " cosy",
  "8415": " Oh",
  "8416": " diamonds",
  "8417": " bride",
  "8418": "stalk",
  "8419": " reapp",
  "8420": " opport",
  "8421": " honking",
  "8422": " garbage",
  "8423": " whispering",
  "8424": " stretches",
  "8425": " prevented",
  "8426": "erk",
  "8427": "antastic",
  "8428": " whoever",
  "8429": " odd",
  "8430": " awful",
  "8431": " Gray",
  "8432": "alth",
  "8433": " weighs",
  "8434": " journeys",
  "8435": " awoke",
  "8436": "Brrr",
  "8437": " traps",
  "8438": " spices",
  "8439": " dragonfly",
  "8440": "off",
  "8441": " born",
  "8442": " reassured",
  "8443": " clip",
  "8444": "ivia",
  "8445": " stall",
  "8446": " beanstalk",
  "8447": " argum",
  "8448": " examining",
  "8449": " definitely",
  "8450": " beetles",
  "8451": " automobiles",
  "8452": " Maisy",
  "8453": "mine",
  "8454": "ici",
  "8455": "Hop",
  "8456": " visitors",
  "8457": " stuffing",
  "8458": " playdate",
  "8459": " washes",
  "8460": "cie",
  "8461": "broken",
  "8462": " wiser",
  "8463": " customer",
  "8464": "uper",
  "8465": "emma",
  "8466": "Rachel",
  "8467": " travelling",
  "8468": " Sofia",
  "8469": " Jolly",
  "8470": " Flop",
  "8471": "ouquet",
  "8472": " hairdress",
  "8473": " bouquet",
  "8474": " Nurse",
  "8475": "orse",
  "8476": "bble",
  "8477": ",'",
  "8478": " tumbled",
  "8479": " decoration",
  "8480": " campfire",
  "8481": " Elle",
  "8482": " honesty",
  "8483": " bud",
  "8484": "vy",
  "8485": "ebecca",
  "8486": "Only",
  "8487": " bomb",
  "8488": " welcoming",
  "8489": " offering",
  "8490": " wealth",
  "8491": " troubles",
  "8492": " occas",
  "8493": " increasing",
  "8494": " Ot",
  "8495": " Jax",
  "8496": " Hello",
  "8497": " loudest",
  "8498": " inspired",
  "8499": " type",
  "8500": " parted",
  "8501": " groan",
  "8502": " Chick",
  "8503": " Nutty",
  "8504": "irac",
  "8505": " whales",
  "8506": " Thunder",
  "8507": " Ricky",
  "8508": "yl",
  "8509": " declared",
  "8510": " correctly",
  "8511": "yler",
  "8512": "ooky",
  "8513": "fus",
  "8514": " beaks",
  "8515": " Quacky",
  "8516": "athan",
  "8517": " cleared",
  "8518": " cowboys",
  "8519": " nuzzled",
  "8520": " Dotty",
  "8521": " prizes",
  "8522": " exch",
  "8523": "Finny",
  "8524": " warmly",
  "8525": " Missile",
  "8526": " rewards",
  "8527": " obeyed",
  "8528": " customers",
  "8529": "Should",
  "8530": " sirens",
  "8531": " comforting",
  "8532": " Fel",
  "8533": "shaped",
  "8534": " connect",
  "8535": " Flappy",
  "8536": "match",
  "8537": " towns",
  "8538": " Magic",
  "8539": " Bingo",
  "8540": "elieve",
  "8541": " rely",
  "8542": " Vicky",
  "8543": "Honey",
  "8544": " trigger",
  "8545": " owns",
  "8546": " insisting",
  "8547": " fantastic",
  "8548": " bends",
  "8549": " Fe",
  "8550": " spoiling",
  "8551": " hairdresser",
  "8552": " surrendered",
  "8553": " supporting",
  "8554": " shares",
  "8555": " poses",
  "8556": " pipes",
  "8557": " cleans",
  "8558": "rench",
  "8559": "Sun",
  "8560": "Outside",
  "8561": "Julie",
  "8562": " wrinkled",
  "8563": " Cook",
  "8564": " chopped",
  "8565": " recorder",
  "8566": " moons",
  "8567": " beaming",
  "8568": "unes",
  "8569": "ellow",
  "8570": "Beth",
  "8571": " thanking",
  "8572": " snowy",
  "8573": " Wolf",
  "8574": " scurry",
  "8575": " experien",
  "8576": " enjoyable",
  "8577": " active",
  "8578": " coral",
  "8579": " Piggy",
  "8580": " environ",
  "8581": " dollar",
  "8582": " Kevin",
  "8583": "worm",
  "8584": "elope",
  "8585": " loc",
  "8586": "Je",
  "8587": " streamers",
  "8588": " Bub",
  "8589": "udged",
  "8590": " Patty",
  "8591": " Mother",
  "8592": " Zack",
  "8593": "inger",
  "8594": "Suzy",
  "8595": " examp",
  "8596": " shorts",
  "8597": " shooed",
  "8598": " environment",
  "8599": "Tree",
  "8600": " ill",
  "8601": " scent",
  "8602": " bruises",
  "8603": "uster",
  "8604": " grat",
  "8605": " Luc",
  "8606": "Bo",
  "8607": " hisses",
  "8608": " steering",
  "8609": " self",
  "8610": " plugged",
  "8611": " Elsa",
  "8612": " warrior",
  "8613": " visits",
  "8614": " exercises",
  "8615": "screen",
  "8616": "irl",
  "8617": "aptain",
  "8618": " dangers",
  "8619": " cuddles",
  "8620": " Rel",
  "8621": " Min",
  "8622": " Ar",
  "8623": " unfortunately",
  "8624": " squished",
  "8625": " signing",
  "8626": " Light",
  "8627": "bee",
  "8628": "Ray",
  "8629": " pilots",
  "8630": " disappoint",
  "8631": "munk",
  "8632": " gratitude",
  "8633": " applauding",
  "8634": " providing",
  "8635": " Moppy",
  "8636": "alf",
  "8637": " tickles",
  "8638": " ting",
  "8639": " Rub",
  "8640": "Grow",
  "8641": " storms",
  "8642": " nights",
  "8643": " jud",
  "8644": " convinced",
  "8645": " badger",
  "8646": " Elsie",
  "8647": " youn",
  "8648": " responsib",
  "8649": " choosing",
  "8650": " Kelly",
  "8651": "Joy",
  "8652": " youngest",
  "8653": " nearest",
  "8654": " brains",
  "8655": " activity",
  "8656": "Abby",
  "8657": " exploded",
  "8658": " coughed",
  "8659": " arranged",
  "8660": "Claire",
  "8661": " rewarding",
  "8662": " Tre",
  "8663": " Fly",
  "8664": "pr",
  "8665": "good",
  "8666": "erpiece",
  "8667": " sunscreen",
  "8668": " peep",
  "8669": " bond",
  "8670": " Floppy",
  "8671": "asers",
  "8672": "Mon",
  "8673": " Tweety",
  "8674": " Sweet",
  "8675": " Katy",
  "8676": " Joan",
  "8677": " Sal",
  "8678": "ilities",
  "8679": " annoying",
  "8680": "sn",
  "8681": " soapy",
  "8682": "meow",
  "8683": "Splash",
  "8684": " rails",
  "8685": " laces",
  "8686": " threads",
  "8687": " tapping",
  "8688": " offic",
  "8689": " appreciated",
  "8690": " Pine",
  "8691": " Phil",
  "8692": "boards",
  "8693": " weighing",
  "8694": " heartbroken",
  "8695": " emerged",
  "8696": " congratulated",
  "8697": " Pick",
  "8698": "Danger",
  "8699": " tin",
  "8700": " Sil",
  "8701": " crocodiles",
  "8702": " clerk",
  "8703": " scram",
  "8704": " attempt",
  "8705": " Nancy",
  "8706": "water",
  "8707": "Ahoy",
  "8708": " snug",
  "8709": " messed",
  "8710": " example",
  "8711": " dial",
  "8712": " Kay",
  "8713": " Any",
  "8714": "Momma",
  "8715": " hooks",
  "8716": " Jonny",
  "8717": " tops",
  "8718": " chipmunk",
  "8719": " soot",
  "8720": " guarding",
  "8721": " bathed",
  "8722": " manager",
  "8723": " Tippy",
  "8724": "ortunately",
  "8725": " Microscope",
  "8726": "Friends",
  "8727": " De",
  "8728": "etah",
  "8729": "Snowy",
  "8730": " masterpiece",
  "8731": " Baa",
  "8732": " erasers",
  "8733": " tips",
  "8734": " finishes",
  "8735": " fet",
  "8736": " common",
  "8737": " Tomorrow",
  "8738": "mbers",
  "8739": " trotted",
  "8740": " nibbled",
  "8741": " members",
  "8742": " digs",
  "8743": "People",
  "8744": " kinder",
  "8745": " cheetah",
  "8746": " particularly",
  "8747": " chews",
  "8748": " blond",
  "8749": "ircle",
  "8750": " rips",
  "8751": " beast",
  "8752": "Lizzy",
  "8753": " argument",
  "8754": "ative",
  "8755": " faith",
  "8756": " Helping",
  "8757": " earned",
  "8758": "Anne",
  "8759": " observing",
  "8760": " forgiveness",
  "8761": " Joke",
  "8762": " Cici",
  "8763": "chievous",
  "8764": " instantly",
  "8765": " fishes",
  "8766": " experienced",
  "8767": " curl",
  "8768": " cheaper",
  "8769": " Jumpy",
  "8770": "Rosie",
  "8771": " mischievous",
  "8772": " generosity",
  "8773": " cages",
  "8774": " Twist",
  "8775": "Gr",
  "8776": "Baa",
  "8777": " meowing",
  "8778": " foam",
  "8779": "mered",
  "8780": "Cindy",
  "8781": " stores",
  "8782": " grandd",
  "8783": " Ag",
  "8784": "etchup",
  "8785": " mattered",
  "8786": " teles",
  "8787": " passes",
  "8788": " limp",
  "8789": "Sque",
  "8790": " sleeps",
  "8791": "iolet",
  "8792": " breaths",
  "8793": "ordinary",
  "8794": "ettle",
  "8795": "ending",
  "8796": " trans",
  "8797": " rin",
  "8798": " gasps",
  "8799": " Freddie",
  "8800": "Got",
  "8801": " rumbling",
  "8802": " hatch",
  "8803": " Momma",
  "8804": "over",
  "8805": "abra",
  "8806": " grassho",
  "8807": " accomplished",
  "8808": " Hopper",
  "8809": "acing",
  "8810": " thump",
  "8811": " telescope",
  "8812": " strum",
  "8813": " smartest",
  "8814": " mats",
  "8815": " whined",
  "8816": " moat",
  "8817": "Gina",
  "8818": " scrambled",
  "8819": " jugg",
  "8820": " farmers",
  "8821": " Ice",
  "8822": " drip",
  "8823": "Robbie",
  "8824": " syrup",
  "8825": " gardens",
  "8826": " collapsed",
  "8827": " angrily",
  "8828": " More",
  "8829": "ouraged",
  "8830": "idey",
  "8831": " vegg",
  "8832": " styles",
  "8833": " forests",
  "8834": " experiences",
  "8835": " discoveries",
  "8836": "hole",
  "8837": " tor",
  "8838": " medals",
  "8839": " types",
  "8840": " otters",
  "8841": " meaning",
  "8842": " faint",
  "8843": " conqu",
  "8844": " Does",
  "8845": "pit",
  "8846": "adabra",
  "8847": "acock",
  "8848": " snapping",
  "8849": " hardest",
  "8850": " fif",
  "8851": "ering",
  "8852": " movements",
  "8853": " expression",
  "8854": " surv",
  "8855": " chilly",
  "8856": " bubbly",
  "8857": " affect",
  "8858": "Pinky",
  "8859": " vests",
  "8860": " unfair",
  "8861": " court",
  "8862": "Whenever",
  "8863": " toothbrush",
  "8864": " scores",
  "8865": " extraordinary",
  "8866": "Never",
  "8867": " attitude",
  "8868": " vibr",
  "8869": " horri",
  "8870": " bluebird",
  "8871": " Monkey",
  "8872": "mel",
  "8873": "lls",
  "8874": "Mo",
  "8875": " spears",
  "8876": " ketchup",
  "8877": " Berry",
  "8878": "Mother",
  "8879": " sooner",
  "8880": " grasshopper",
  "8881": " behaviour",
  "8882": " patches",
  "8883": " habit",
  "8884": "yd",
  "8885": "erts",
  "8886": "Karen",
  "8887": " pokes",
  "8888": " momma",
  "8889": " afar",
  "8890": " Ashley",
  "8891": "lo",
  "8892": "ieves",
  "8893": "Jacob",
  "8894": " thicker",
  "8895": " scri",
  "8896": " Friend",
  "8897": "Jon",
  "8898": " squeezes",
  "8899": " slithered",
  "8900": " shrunk",
  "8901": " classmates",
  "8902": " Terry",
  "8903": " Fle",
  "8904": " icky",
  "8905": " prickly",
  "8906": " glittering",
  "8907": " expert",
  "8908": " topp",
  "8909": " kneeling",
  "8910": " announced",
  "8911": " Super",
  "8912": " Riri",
  "8913": "elling",
  "8914": " peacock",
  "8915": " marking",
  "8916": "ctric",
  "8917": " costs",
  "8918": " Cally",
  "8919": " Achoo",
  "8920": " zigzags",
  "8921": " watermel",
  "8922": " thieves",
  "8923": " skirts",
  "8924": " jumper",
  "8925": " hood",
  "8926": " acts",
  "8927": " Zog",
  "8928": " App",
  "8929": " wolves",
  "8930": " Swim",
  "8931": " Cloud",
  "8932": "Papa",
  "8933": " thumbs",
  "8934": " squeaky",
  "8935": " concer",
  "8936": " cocoon",
  "8937": " woodcut",
  "8938": " boards",
  "8939": " Eliza",
  "8940": " Becky",
  "8941": " servant",
  "8942": "idence",
  "8943": "affle",
  "8944": " cheating",
  "8945": " Jason",
  "8946": "bu",
  "8947": " trading",
  "8948": " raking",
  "8949": "cat",
  "8950": "Jessie",
  "8951": " explaining",
  "8952": " Eric",
  "8953": "rick",
  "8954": " tidied",
  "8955": " biscuit",
  "8956": " lunchtime",
  "8957": " luckily",
  "8958": " Ac",
  "8959": "anced",
  "8960": "Frog",
  "8961": " Puffy",
  "8962": " spilling",
  "8963": " Day",
  "8964": "Fire",
  "8965": " transform",
  "8966": " desserts",
  "8967": " Use",
  "8968": " Maddy",
  "8969": " Daniel",
  "8970": " Animal",
  "8971": "…",
  "8972": "ror",
  "8973": " Pig",
  "8974": " Mine",
  "8975": " Still",
  "8976": " Gill",
  "8977": "rough",
  "8978": "amma",
  "8979": " messages",
  "8980": " mirac",
  "8981": " Captain",
  "8982": "idy",
  "8983": " windowsill",
  "8984": " chill",
  "8985": " beating",
  "8986": " Tammy",
  "8987": " Lung",
  "8988": " Gilly",
  "8989": "oot",
  "8990": " seeking",
  "8991": " actor",
  "8992": " Rainbow",
  "8993": " Lina",
  "8994": " William",
  "8995": "sess",
  "8996": "its",
  "8997": " Math",
  "8998": "pril",
  "8999": "Any",
  "9000": " foreshadow",
  "9001": "war",
  "9002": "acles",
  "9003": "Bluey",
  "9004": " leans",
  "9005": " Step",
  "9006": " Pinch",
  "9007": " Hi",
  "9008": "racadabra",
  "9009": "Freeze",
  "9010": "Bounce",
  "9011": " watermelon",
  "9012": " hissing",
  "9013": " flashing",
  "9014": " dev",
  "9015": " cloths",
  "9016": " Tiger",
  "9017": " Monster",
  "9018": " Frankie",
  "9019": " winding",
  "9020": " positive",
  "9021": " funn",
  "9022": " discouraged",
  "9023": " Wil",
  "9024": "pop",
  "9025": " woodcutter",
  "9026": " forts",
  "9027": " dripped",
  "9028": " compete",
  "9029": " teapot",
  "9030": " pressing",
  "9031": " disagreeing",
  "9032": "icking",
  "9033": " glimmering",
  "9034": " veggies",
  "9035": " trusts",
  "9036": " tidying",
  "9037": " kangaroos",
  "9038": " Peep",
  "9039": " tempted",
  "9040": " landing",
  "9041": " Flora",
  "9042": " dock",
  "9043": " shallow",
  "9044": " overw",
  "9045": " formed",
  "9046": "lers",
  "9047": " rack",
  "9048": " fade",
  "9049": " Tooth",
  "9050": "flowers",
  "9051": " worst",
  "9052": " electric",
  "9053": " cops",
  "9054": "eling",
  "9055": "Nothing",
  "9056": " apology",
  "9057": "iving",
  "9058": "creams",
  "9059": "ai",
  "9060": " sleds",
  "9061": " Silver",
  "9062": " Life",
  "9063": "upid",
  "9064": " comets",
  "9065": " ass",
  "9066": "Owl",
  "9067": " sav",
  "9068": " Shark",
  "9069": " Mag",
  "9070": " Jelly",
  "9071": "Bug",
  "9072": " situations",
  "9073": " papa",
  "9074": " officers",
  "9075": " conversation",
  "9076": " 4",
  "9077": "Rain",
  "9078": " Roger",
  "9079": " Charlotte",
  "9080": "storm",
  "9081": "aye",
  "9082": " suns",
  "9083": " ding",
  "9084": "”,",
  "9085": " zips",
  "9086": " structures",
  "9087": " scurrying",
  "9088": " pizzas",
  "9089": " overwhel",
  "9090": " miller",
  "9091": " Butter",
  "9092": " granddaughter",
  "9093": " foggy",
  "9094": " Olivia",
  "9095": " Hurry",
  "9096": " Amber",
  "9097": "Zoe",
  "9098": " Janey",
  "9099": " webs",
  "9100": " deserved",
  "9101": "Rabbit",
  "9102": " opportunity",
  "9103": " cubs",
  "9104": " Yummy",
  "9105": " Spidey",
  "9106": " Sasha",
  "9107": " Mixie",
  "9108": " Buster",
  "9109": " snorted",
  "9110": " rhino",
  "9111": " differences",
  "9112": " Gold",
  "9113": " quacking",
  "9114": " Tell",
  "9115": "ifully",
  "9116": "ended",
  "9117": "Fifi",
  "9118": " heaven",
  "9119": " Birds",
  "9120": " unlo",
  "9121": " levers",
  "9122": " inchworm",
  "9123": " inter",
  "9124": " approach",
  "9125": " Tyler",
  "9126": "ssess",
  "9127": " seagulls",
  "9128": " possess",
  "9129": " cooperate",
  "9130": " Rufus",
  "9131": " Felix",
  "9132": " Boom",
  "9133": "welcome",
  "9134": "sers",
  "9135": "ragon",
  "9136": "of",
  "9137": "?”.",
  "9138": "andra",
  "9139": " pose",
  "9140": " disappointment",
  "9141": " Smoke",
  "9142": "ocular",
  "9143": " speaks",
  "9144": " sneaks",
  "9145": "snap",
  "9146": " binocular",
  "9147": " artwork",
  "9148": " surfed",
  "9149": " scowl",
  "9150": " answering",
  "9151": " Snake",
  "9152": " shortcut",
  "9153": " Grand",
  "9154": " sipped",
  "9155": " robin",
  "9156": " dep",
  "9157": "Climb",
  "9158": " arrest",
  "9159": " Inky",
  "9160": "ssy",
  "9161": " unwrapped",
  "9162": " ribbit",
  "9163": " reun",
  "9164": " amused",
  "9165": " Amanda",
  "9166": "ugar",
  "9167": " repeats",
  "9168": " pepperoni",
  "9169": " applause",
  "9170": " keyhole",
  "9171": " checkout",
  "9172": " Mae",
  "9173": " Cars",
  "9174": "Lia",
  "9175": "Deal",
  "9176": " visitor",
  "9177": " striking",
  "9178": " puppets",
  "9179": " paddling",
  "9180": "Eat",
  "9181": " unz",
  "9182": " croaked",
  "9183": " attacked",
  "9184": " Circle",
  "9185": " Brian",
  "9186": "orsie",
  "9187": " spooky",
  "9188": " Otto",
  "9189": " Gus",
  "9190": "Each",
  "9191": " groaned",
  "9192": " beautifully",
  "9193": " Jean",
  "9194": "gar",
  "9195": "cidents",
  "9196": " swimsuits",
  "9197": " consider",
  "9198": " checking",
  "9199": "uses",
  "9200": " Yellow",
  "9201": "jest",
  "9202": " waters",
  "9203": " groom",
  "9204": " Squeak",
  "9205": " Slinky",
  "9206": "yle",
  "9207": " invent",
  "9208": "Luke",
  "9209": " nets",
  "9210": " exams",
  "9211": "otion",
  "9212": "ets",
  "9213": " drying",
  "9214": " Rebecca",
  "9215": "udy",
  "9216": "artin",
  "9217": "agine",
  "9218": " shrugs",
  "9219": " lump",
  "9220": " Auntie",
  "9221": "sie",
  "9222": "lest",
  "9223": " sobbing",
  "9224": " shyly",
  "9225": " shoots",
  "9226": " honks",
  "9227": " heels",
  "9228": " cheerfully",
  "9229": " Since",
  "9230": "ili",
  "9231": "hny",
  "9232": "esses",
  "9233": " shh",
  "9234": " chin",
  "9235": "anish",
  "9236": " whimpered",
  "9237": " healthier",
  "9238": " hangs",
  "9239": "icious",
  "9240": "Milo",
  "9241": " Mus",
  "9242": " caterpillars",
  "9243": "izzes",
  "9244": "Slowly",
  "9245": " squinted",
  "9246": " magnifying",
  "9247": " fries",
  "9248": " Ratty",
  "9249": " fascinating",
  "9250": " blamed",
  "9251": " Find",
  "9252": "ulpture",
  "9253": "ching",
  "9254": " sculpture",
  "9255": " frustration",
  "9256": " Tip",
  "9257": "ouched",
  "9258": " shimmering",
  "9259": " Penelope",
  "9260": " poss",
  "9261": " Peace",
  "9262": "edic",
  "9263": "Sharing",
  "9264": " suck",
  "9265": " pleas",
  "9266": " numbered",
  "9267": " nibble",
  "9268": " Waffle",
  "9269": "othy",
  "9270": "ibbles",
  "9271": "ellie",
  "9272": "amil",
  "9273": " flowing",
  "9274": " baa",
  "9275": "hings",
  "9276": "Pepper",
  "9277": " raked",
  "9278": " grumbled",
  "9279": " Off",
  "9280": "that",
  "9281": "Bubbles",
  "9282": " builder",
  "9283": "racted",
  "9284": "eat",
  "9285": " swaying",
  "9286": " petting",
  "9287": " guards",
  "9288": " facing",
  "9289": " Woolly",
  "9290": " sprinkle",
  "9291": " mysteries",
  "9292": " details",
  "9293": " Har",
  "9294": "sey",
  "9295": " snort",
  "9296": " flock",
  "9297": " enemy",
  "9298": " Boat",
  "9299": " textures",
  "9300": " tablet",
  "9301": " goodies",
  "9302": " Curious",
  "9303": " Barry",
  "9304": "Yesterday",
  "9305": " wig",
  "9306": " popping",
  "9307": " wildflowers",
  "9308": " stacks",
  "9309": " marve",
  "9310": " fans",
  "9311": " crops",
  "9312": " countries",
  "9313": " Jenn",
  "9314": " Gracie",
  "9315": "how",
  "9316": " knobs",
  "9317": " Tessa",
  "9318": " Seeing",
  "9319": " local",
  "9320": " bushy",
  "9321": " stew",
  "9322": " peeped",
  "9323": " hunting",
  "9324": " drowned",
  "9325": " bowing",
  "9326": " binoculars",
  "9327": " angrier",
  "9328": " Bubu",
  "9329": " maps",
  "9330": " Match",
  "9331": " quizzes",
  "9332": " niece",
  "9333": " moonlight",
  "9334": " Glow",
  "9335": " outfits",
  "9336": " Johnson",
  "9337": " Deal",
  "9338": "OO",
  "9339": " whoosh",
  "9340": " weaker",
  "9341": " wrench",
  "9342": " mindful",
  "9343": " crowded",
  "9344": "cycles",
  "9345": "Squ",
  "9346": " endings",
  "9347": " Beef",
  "9348": "oll",
  "9349": "Im",
  "9350": " property",
  "9351": " hesitation",
  "9352": " flashes",
  "9353": "amiliar",
  "9354": " unless",
  "9355": " imaginations",
  "9356": " fond",
  "9357": " carts",
  "9358": " boil",
  "9359": " ability",
  "9360": " Oxy",
  "9361": " Andrew",
  "9362": "getic",
  "9363": " glared",
  "9364": " Right",
  "9365": " Accidents",
  "9366": "stand",
  "9367": " unfamiliar",
  "9368": " spaces",
  "9369": " microw",
  "9370": " knit",
  "9371": " haven",
  "9372": " folds",
  "9373": "ths",
  "9374": "saw",
  "9375": "Tuna",
  "9376": " responsibility",
  "9377": " dirtier",
  "9378": " Pet",
  "9379": "bank",
  "9380": " pouch",
  "9381": " microwave",
  "9382": " desks",
  "9383": "ibly",
  "9384": "Bless",
  "9385": " cracker",
  "9386": "rnie",
  "9387": " swapped",
  "9388": " member",
  "9389": " date",
  "9390": " aston",
  "9391": " Oxygen",
  "9392": " Ring",
  "9393": " Ravi",
  "9394": "lt",
  "9395": "free",
  "9396": "Want",
  "9397": "Cra",
  "9398": " whine",
  "9399": " softened",
  "9400": " rebu",
  "9401": " doorstep",
  "9402": " disappearing",
  "9403": " Peggy",
  "9404": " Helen",
  "9405": " Bun",
  "9406": " quacks",
  "9407": " natur",
  "9408": " Chip",
  "9409": "scar",
  "9410": " writer",
  "9411": " listener",
  "9412": " Too",
  "9413": " Fix",
  "9414": " priv",
  "9415": " blushed",
  "9416": " Spicy",
  "9417": "venir",
  "9418": " palms",
  "9419": " noticing",
  "9420": "upt",
  "9421": "repe",
  "9422": "poison",
  "9423": " souvenir",
  "9424": " Past",
  "9425": "repeat",
  "9426": "entr",
  "9427": " laws",
  "9428": " disaster",
  "9429": " Tra",
  "9430": " Res",
  "9431": " Gabby",
  "9432": "str",
  "9433": "reg",
  "9434": "endant",
  "9435": "Robby",
  "9436": " phones",
  "9437": "ala",
  "9438": "Ava",
  "9439": " confidence",
  "9440": " Li",
  "9441": " Coal",
  "9442": " Cut",
  "9443": " Bert",
  "9444": " timid",
  "9445": " stirs",
  "9446": " overwhelmed",
  "9447": "ingly",
  "9448": "Being",
  "9449": " mayor",
  "9450": " flick",
  "9451": "guess",
  "9452": "asmine",
  "9453": "Che",
  "9454": " tugging",
  "9455": " Pretty",
  "9456": " Mole",
  "9457": "lor",
  "9458": " untangle",
  "9459": " satisfa",
  "9460": " owls",
  "9461": " mailing",
  "9462": " injured",
  "9463": "Whose",
  "9464": " satisfaction",
  "9465": " concentr",
  "9466": " White",
  "9467": " Immediately",
  "9468": " Books",
  "9469": "Fly",
  "9470": " March",
  "9471": " Animals",
  "9472": "mers",
  "9473": "Sc",
  "9474": "Mittens",
  "9475": " lim",
  "9476": " Eat",
  "9477": "this",
  "9478": "Mabel",
  "9479": " prank",
  "9480": " Wonder",
  "9481": " Nora",
  "9482": " Bonnie",
  "9483": "Wiggly",
  "9484": " hooves",
  "9485": " Triangle",
  "9486": " Run",
  "9487": " Pot",
  "9488": " Melissa",
  "9489": " Kn",
  "9490": "well",
  "9491": "Jeff",
  "9492": " fixer",
  "9493": " Startled",
  "9494": " Sir",
  "9495": " Clean",
  "9496": " Close",
  "9497": "icate",
  "9498": " snar",
  "9499": " clut",
  "9500": "lish",
  "9501": "bling",
  "9502": "Excited",
  "9503": " skies",
  "9504": " instrument",
  "9505": " Trucky",
  "9506": " capt",
  "9507": " Matilda",
  "9508": " Horsie",
  "9509": " Faye",
  "9510": "adually",
  "9511": " disagre",
  "9512": "iky",
  "9513": " wriggled",
  "9514": " stains",
  "9515": " rinse",
  "9516": " pecks",
  "9517": " creak",
  "9518": " Sleepy",
  "9519": "Susan",
  "9520": " shave",
  "9521": " bumping",
  "9522": " Sing",
  "9523": " Icy",
  "9524": " Heli",
  "9525": " Crabby",
  "9526": "ulf",
  "9527": " swirl",
  "9528": " ruff",
  "9529": " bending",
  "9530": "cessary",
  "9531": "Playing",
  "9532": "Close",
  "9533": " sandpit",
  "9534": " exploration",
  "9535": " chatted",
  "9536": " Scissors",
  "9537": "Make",
  "9538": " rods",
  "9539": " lever",
  "9540": " facts",
  "9541": "Sm",
  "9542": " attaching",
  "9543": " Candy",
  "9544": " fooled",
  "9545": " burger",
  "9546": " Bro",
  "9547": " glows",
  "9548": " concerned",
  "9549": " clearly",
  "9550": "Maya",
  "9551": " salon",
  "9552": " reversing",
  "9553": " lava",
  "9554": " compan",
  "9555": " certainly",
  "9556": "els",
  "9557": "Wally",
  "9558": " smelt",
  "9559": " motorcycles",
  "9560": " fetched",
  "9561": " circ",
  "9562": " troll",
  "9563": " tunes",
  "9564": " sometime",
  "9565": " prod",
  "9566": " oldest",
  "9567": " fireflies",
  "9568": "Ring",
  "9569": " kissing",
  "9570": " challenges",
  "9571": " blonde",
  "9572": "Kayla",
  "9573": " warmed",
  "9574": " Bobbie",
  "9575": " unlocking",
  "9576": " natural",
  "9577": " differently",
  "9578": " bound",
  "9579": " Lots",
  "9580": "urple",
  "9581": "sa",
  "9582": "erg",
  "9583": "Tara",
  "9584": "Dino",
  "9585": "Abracadabra",
  "9586": " rubb",
  "9587": " riverbank",
  "9588": " detect",
  "9589": " cutter",
  "9590": " cupcake",
  "9591": " conquered",
  "9592": " hates",
  "9593": " alley",
  "9594": " Flap",
  "9595": "sorry",
  "9596": " swirls",
  "9597": " sends",
  "9598": " realise",
  "9599": " Open",
  "9600": " Flopsy",
  "9601": "Julia",
  "9602": "Isn",
  "9603": " wiggling",
  "9604": " sensation",
  "9605": " munched",
  "9606": " banging",
  "9607": " Cammy",
  "9608": " toppings",
  "9609": " hippos",
  "9610": " fist",
  "9611": " clips",
  "9612": " Reliable",
  "9613": "Doctor",
  "9614": " swayed",
  "9615": " stings",
  "9616": " robe",
  "9617": " miracle",
  "9618": " halves",
  "9619": " brakes",
  "9620": " Greeny",
  "9621": "Hope",
  "9622": "Fish",
  "9623": " survive",
  "9624": " ostriches",
  "9625": " Pink",
  "9626": " Climb",
  "9627": "ula",
  "9628": "keepers",
  "9629": "bert",
  "9630": "Michael",
  "9631": " torto",
  "9632": " otherwise",
  "9633": " embra",
  "9634": " crushed",
  "9635": " bubbling",
  "9636": " tents",
  "9637": " Looking",
  "9638": "ani",
  "9639": " repairing",
  "9640": " Of",
  "9641": " vinegar",
  "9642": " stretchy",
  "9643": " rubbish",
  "9644": " lizards",
  "9645": " Working",
  "9646": " Flicker",
  "9647": " passenger",
  "9648": " Ed",
  "9649": "aste",
  "9650": "Many",
  "9651": " vibrant",
  "9652": " tortoise",
  "9653": " pounced",
  "9654": " Which",
  "9655": "Suzie",
  "9656": " scene",
  "9657": " Rh",
  "9658": " Grump",
  "9659": "gr",
  "9660": " mooed",
  "9661": " glided",
  "9662": " desperately",
  "9663": " bas",
  "9664": " snip",
  "9665": " poop",
  "9666": " majest",
  "9667": " intently",
  "9668": " copied",
  "9669": " calmer",
  "9670": " Sundays",
  "9671": " Lightning",
  "9672": "rap",
  "9673": "net",
  "9674": " woken",
  "9675": " twel",
  "9676": " rags",
  "9677": " judges",
  "9678": " joyfully",
  "9679": " jing",
  "9680": " coolest",
  "9681": " Per",
  "9682": "smelling",
  "9683": " lectures",
  "9684": " glob",
  "9685": " Jody",
  "9686": "lyn",
  "9687": "isible",
  "9688": " hips",
  "9689": " cousins",
  "9690": " astonished",
  "9691": " capes",
  "9692": " Outside",
  "9693": " Lu",
  "9694": "uno",
  "9695": "Eww",
  "9696": " successfully",
  "9697": " speaker",
  "9698": " reunited",
  "9699": " invisible",
  "9700": " guesses",
  "9701": " gooey",
  "9702": " arrives",
  "9703": "why",
  "9704": " twelve",
  "9705": " bats",
  "9706": "urity",
  "9707": "Mikey",
  "9708": " goodness",
  "9709": " computers",
  "9710": " chatting",
  "9711": " Carla",
  "9712": "nded",
  "9713": "mie",
  "9714": " stacking",
  "9715": " snowflake",
  "9716": "istory",
  "9717": " reappeared",
  "9718": " racer",
  "9719": " pounds",
  "9720": " parks",
  "9721": " desperate",
  "9722": " companion",
  "9723": " commun",
  "9724": "bed",
  "9725": "Zigzag",
  "9726": "Ol",
  "9727": " luckiest",
  "9728": " level",
  "9729": " dou",
  "9730": " ank",
  "9731": " tale",
  "9732": " stomachs",
  "9733": " sells",
  "9734": " gall",
  "9735": " dumb",
  "9736": " crickets",
  "9737": " Sugar",
  "9738": "iggles",
  "9739": "Nick",
  "9740": " winds",
  "9741": " sus",
  "9742": " gates",
  "9743": " disobeyed",
  "9744": " disagreement",
  "9745": " Steven",
  "9746": "hile",
  "9747": "More",
  "9748": " pearls",
  "9749": " hoses",
  "9750": " crisp",
  "9751": " awhile",
  "9752": " Whee",
  "9753": "ites",
  "9754": "Lou",
  "9755": " soda",
  "9756": " popsic",
  "9757": " loyalty",
  "9758": " Orange",
  "9759": "Linda",
  "9760": " tongues",
  "9761": " Rosa",
  "9762": "usion",
  "9763": "rent",
  "9764": " rider",
  "9765": " CD",
  "9766": "Ooh",
  "9767": " Black",
  "9768": "pan",
  "9769": " surely",
  "9770": " abo",
  "9771": " Law",
  "9772": " Annabelle",
  "9773": "des",
  "9774": "colored",
  "9775": " occasion",
  "9776": " bund",
  "9777": "rum",
  "9778": "izza",
  "9779": "dog",
  "9780": "!’",
  "9781": " stun",
  "9782": " guitars",
  "9783": " chicks",
  "9784": "chief",
  "9785": " separating",
  "9786": " seashe",
  "9787": " rebuild",
  "9788": " intelligence",
  "9789": " alligators",
  "9790": " aboard",
  "9791": " Raven",
  "9792": " Iron",
  "9793": " April",
  "9794": "Found",
  "9795": " croak",
  "9796": " creep",
  "9797": " Winky",
  "9798": " Violet",
  "9799": "aids",
  "9800": "Something",
  "9801": "Catch",
  "9802": " learner",
  "9803": " caution",
  "9804": " cuc",
  "9805": " Old",
  "9806": " Care",
  "9807": "solut",
  "9808": " whines",
  "9809": " spiky",
  "9810": " revealing",
  "9811": " rins",
  "9812": " Uni",
  "9813": "working",
  "9814": " tickling",
  "9815": " escap",
  "9816": " Settle",
  "9817": " underwater",
  "9818": " globe",
  "9819": " crouched",
  "9820": " Roar",
  "9821": " Coby",
  "9822": " Ba",
  "9823": "udge",
  "9824": "everse",
  "9825": "!'.",
  "9826": " prog",
  "9827": " blooms",
  "9828": " appearance",
  "9829": " ''",
  "9830": "urricane",
  "9831": "stop",
  "9832": "seph",
  "9833": "ifer",
  "9834": "fived",
  "9835": "Jan",
  "9836": " strokes",
  "9837": " leaking",
  "9838": " hatched",
  "9839": " guardian",
  "9840": " Socky",
  "9841": "ealing",
  "9842": "arning",
  "9843": " zookeepers",
  "9844": " tant",
  "9845": " routine",
  "9846": " persistence",
  "9847": " doves",
  "9848": "Snap",
  "9849": "Sleep",
  "9850": "Chicky",
  "9851": " taps",
  "9852": " squashes",
  "9853": " quilt",
  "9854": " painful",
  "9855": " lighting",
  "9856": " blame",
  "9857": " admit",
  "9858": "Toys",
  "9859": "Ahh",
  "9860": " tempting",
  "9861": " shattered",
  "9862": " ripp",
  "9863": " mold",
  "9864": " deeply",
  "9865": " Puff",
  "9866": "ggles",
  "9867": "Three",
  "9868": "Ralph",
  "9869": "Matt",
  "9870": " throne",
  "9871": " squirted",
  "9872": " security",
  "9873": " peeks",
  "9874": " electricity",
  "9875": " centre",
  "9876": " burgers",
  "9877": " Spin",
  "9878": "emon",
  "9879": "con",
  "9880": " realizing",
  "9881": " cooks",
  "9882": " allowing",
  "9883": " Liam",
  "9884": "ushes",
  "9885": "orth",
  "9886": "oss",
  "9887": "cker",
  "9888": "Jessica",
  "9889": " lar",
  "9890": " exchange",
  "9891": " chopping",
  "9892": "Share",
  "9893": "Sophia",
  "9894": " sweetly",
  "9895": " Race",
  "9896": " Quickly",
  "9897": " Alf",
  "9898": "vering",
  "9899": " sweeter",
  "9900": " rinsed",
  "9901": " glittered",
  "9902": "isapp",
  "9903": "Zero",
  "9904": "Sw",
  "9905": " melts",
  "9906": " melody",
  "9907": " goggles",
  "9908": " furious",
  "9909": " energetic",
  "9910": " defeated",
  "9911": " builders",
  "9912": " Inch",
  "9913": "asy",
  "9914": " waded",
  "9915": " tantrum",
  "9916": " sniffled",
  "9917": " chooses",
  "9918": " Otherwise",
  "9919": " Cats",
  "9920": " Comet",
  "9921": " container",
  "9922": " competing",
  "9923": " Giant",
  "9924": "eremy",
  "9925": "bang",
  "9926": " Sharp",
  "9927": " Mila",
  "9928": "arted",
  "9929": " undone",
  "9930": " seriously",
  "9931": " protection",
  "9932": " larger",
  "9933": " lull",
  "9934": " hudd",
  "9935": " attempts",
  "9936": " Rara",
  "9937": " Park",
  "9938": " Duke",
  "9939": "Shoo",
  "9940": "Lizzie",
  "9941": " tossing",
  "9942": " helicopters",
  "9943": " cooed",
  "9944": " cluck",
  "9945": " buckles",
  "9946": " Whale",
  "9947": " Pinchy",
  "9948": " Cher",
  "9949": "Sweet",
  "9950": " Tears",
  "9951": " Smo",
  "9952": " Over",
  "9953": "solutely",
  "9954": "Still",
  "9955": "Squeaky",
  "9956": " hummed",
  "9957": " dedic",
  "9958": " courageous",
  "9959": " Ma",
  "9960": " Hor",
  "9961": " Din",
  "9962": "Maddy",
  "9963": "Everything",
  "9964": "Curious",
  "9965": " racers",
  "9966": " patients",
  "9967": " muster",
  "9968": " god",
  "9969": " deserves",
  "9970": " aloud",
  "9971": " Things",
  "9972": "aps",
  "9973": "Use",
  "9974": " Squee",
  "9975": " Dragon",
  "9976": " tours",
  "9977": " meets",
  "9978": " marvel",
  "9979": " Rusty",
  "9980": " Liza",
  "9981": " Jet",
  "9982": "Froggy",
  "9983": " wrapper",
  "9984": " Reddy",
  "9985": " Hops",
  "9986": " Crusty",
  "9987": " whiskers",
  "9988": " nicest",
  "9989": " improving",
  "9990": " booth",
  "9991": " Land",
  "9992": "Surrender",
  "9993": "Rocky",
  "9994": " meadows",
  "9995": " imaginary",
  "9996": " bold",
  "9997": " Starry",
  "9998": "Twinkle",
  "9999": "!'\""
}